{
  "version": "1.0",
  "truncation": {
    "direction": "Right",
    "max_length": 64,
    "strategy": "LongestFirst",
    "stride": 0
  },
  "padding": {
    "strategy": "BatchLongest",
    "direction": "Right",
    "pad_to_multiple_of": null,
    "pad_id": 0,
    "pad_type_id": 0,
    "pad_token": "[PAD]"
  },
  "added_tokens": [
    {
      "id": 0,
      "content": "[PAD]",
      "single_word": false,
      "lstrip": false,
      "rstrip": false,
      "normalized": false,
      "special": true
    },
    {
      "id": 1,
      "content": "[UNK]",
      "single_word": false,
      "lstrip": false,
      "rstrip": false,
      "normalized": false,
      "special": true
    },
    {
      "id": 2,
      "content": "[CLS]",
      "single_word": false,
      "lstrip": false,
      "rstrip": false,
      "normalized": false,
      "special": true
    },
    {
      "id": 3,
      "content": "[SEP]",
      "single_word": false,
      "lstrip": false,
      "rstrip": false,
      "normalized": false,
      "special": true
    },
    {
      "id": 4,
      "content": "[MASK]",
      "single_word": false,
      "lstrip": false,
      "rstrip": false,
      "normalized": false,
      "special": true
    }
  ],
  "normalizer": {
    "type": "Sequence",
    "normalizers": [
      {
        "type": "NFD"
      },
      {
        "type": "Lowercase"
      }
    ]
  },
  "pre_tokenizer": {
    "type": "ByteLevel",
    "add_prefix_space": true,
    "trim_offsets": true,
    "use_regex": true
  },
  "post_processor": {
    "type": "ByteLevel",
    "add_prefix_space": true,
    "trim_offsets": true,
    "use_regex": true
  },
  "decoder": {
    "type": "ByteLevel",
    "add_prefix_space": true,
    "trim_offsets": true,
    "use_regex": true
  },
  "model": {
    "type": "BPE",
    "dropout": null,
    "unk_token": "[UNK]",
    "continuing_subword_prefix": null,
    "end_of_word_suffix": null,
    "fuse_unk": false,
    "byte_fallback": true,
    "ignore_merges": false,
    "vocab": {
      "[PAD]": 0,
      "[UNK]": 1,
      "[CLS]": 2,
      "[SEP]": 3,
      "[MASK]": 4,
      "!": 5,
      "\"": 6,
      "#": 7,
      "$": 8,
      "%": 9,
      "&": 10,
      "'": 11,
      "(": 12,
      ")": 13,
      "*": 14,
      "+": 15,
      ",": 16,
      "-": 17,
      ".": 18,
      "/": 19,
      "0": 20,
      "1": 21,
      "2": 22,
      "3": 23,
      "4": 24,
      "5": 25,
      "6": 26,
      "7": 27,
      "8": 28,
      "9": 29,
      ":": 30,
      ";": 31,
      "<": 32,
      "=": 33,
      ">": 34,
      "?": 35,
      "@": 36,
      "A": 37,
      "B": 38,
      "C": 39,
      "D": 40,
      "E": 41,
      "F": 42,
      "G": 43,
      "H": 44,
      "I": 45,
      "J": 46,
      "K": 47,
      "L": 48,
      "M": 49,
      "N": 50,
      "O": 51,
      "P": 52,
      "Q": 53,
      "R": 54,
      "S": 55,
      "T": 56,
      "U": 57,
      "V": 58,
      "W": 59,
      "X": 60,
      "Y": 61,
      "Z": 62,
      "[": 63,
      "\\": 64,
      "]": 65,
      "^": 66,
      "_": 67,
      "`": 68,
      "a": 69,
      "b": 70,
      "c": 71,
      "d": 72,
      "e": 73,
      "f": 74,
      "g": 75,
      "h": 76,
      "i": 77,
      "j": 78,
      "k": 79,
      "l": 80,
      "m": 81,
      "n": 82,
      "o": 83,
      "p": 84,
      "q": 85,
      "r": 86,
      "s": 87,
      "t": 88,
      "u": 89,
      "v": 90,
      "w": 91,
      "x": 92,
      "y": 93,
      "z": 94,
      "{": 95,
      "|": 96,
      "}": 97,
      "~": 98,
      "¡": 99,
      "¢": 100,
      "£": 101,
      "¤": 102,
      "¥": 103,
      "¦": 104,
      "§": 105,
      "¨": 106,
      "©": 107,
      "ª": 108,
      "«": 109,
      "¬": 110,
      "®": 111,
      "¯": 112,
      "°": 113,
      "±": 114,
      "²": 115,
      "³": 116,
      "´": 117,
      "µ": 118,
      "¶": 119,
      "·": 120,
      "¸": 121,
      "¹": 122,
      "º": 123,
      "»": 124,
      "¼": 125,
      "½": 126,
      "¾": 127,
      "¿": 128,
      "À": 129,
      "Á": 130,
      "Â": 131,
      "Ã": 132,
      "Ä": 133,
      "Å": 134,
      "Æ": 135,
      "Ç": 136,
      "È": 137,
      "É": 138,
      "Ê": 139,
      "Ë": 140,
      "Ì": 141,
      "Í": 142,
      "Î": 143,
      "Ï": 144,
      "Ð": 145,
      "Ñ": 146,
      "Ò": 147,
      "Ó": 148,
      "Ô": 149,
      "Õ": 150,
      "Ö": 151,
      "×": 152,
      "Ø": 153,
      "Ù": 154,
      "Ú": 155,
      "Û": 156,
      "Ü": 157,
      "Ý": 158,
      "Þ": 159,
      "ß": 160,
      "à": 161,
      "á": 162,
      "â": 163,
      "ã": 164,
      "ä": 165,
      "å": 166,
      "æ": 167,
      "ç": 168,
      "è": 169,
      "é": 170,
      "ê": 171,
      "ë": 172,
      "ì": 173,
      "í": 174,
      "î": 175,
      "ï": 176,
      "ð": 177,
      "ñ": 178,
      "ò": 179,
      "ó": 180,
      "ô": 181,
      "õ": 182,
      "ö": 183,
      "÷": 184,
      "ø": 185,
      "ù": 186,
      "ú": 187,
      "û": 188,
      "ü": 189,
      "ý": 190,
      "þ": 191,
      "ÿ": 192,
      "Ā": 193,
      "ā": 194,
      "Ă": 195,
      "ă": 196,
      "Ą": 197,
      "ą": 198,
      "Ć": 199,
      "ć": 200,
      "Ĉ": 201,
      "ĉ": 202,
      "Ċ": 203,
      "ċ": 204,
      "Č": 205,
      "č": 206,
      "Ď": 207,
      "ď": 208,
      "Đ": 209,
      "đ": 210,
      "Ē": 211,
      "ē": 212,
      "Ĕ": 213,
      "ĕ": 214,
      "Ė": 215,
      "ė": 216,
      "Ę": 217,
      "ę": 218,
      "Ě": 219,
      "ě": 220,
      "Ĝ": 221,
      "ĝ": 222,
      "Ğ": 223,
      "ğ": 224,
      "Ġ": 225,
      "ġ": 226,
      "Ģ": 227,
      "ģ": 228,
      "Ĥ": 229,
      "ĥ": 230,
      "Ħ": 231,
      "ħ": 232,
      "Ĩ": 233,
      "ĩ": 234,
      "Ī": 235,
      "ī": 236,
      "Ĭ": 237,
      "ĭ": 238,
      "Į": 239,
      "į": 240,
      "İ": 241,
      "ı": 242,
      "Ĳ": 243,
      "ĳ": 244,
      "Ĵ": 245,
      "ĵ": 246,
      "Ķ": 247,
      "ķ": 248,
      "ĸ": 249,
      "Ĺ": 250,
      "ĺ": 251,
      "Ļ": 252,
      "ļ": 253,
      "Ľ": 254,
      "ľ": 255,
      "Ŀ": 256,
      "ŀ": 257,
      "Ł": 258,
      "ł": 259,
      "Ń": 260,
      "Ìģ": 261,
      "ÌĮ": 262,
      "Ġs": 263,
      "Ġp": 264,
      "Ġv": 265,
      "Ġn": 266,
      "ov": 267,
      "Ġz": 268,
      "Ġa": 269,
      "ra": 270,
      "en": 271,
      "st": 272,
      "Ġt": 273,
      "Ġm": 274,
      "re": 275,
      "ie": 276,
      "ch": 277,
      "la": 278,
      "Ġd": 279,
      "Ġk": 280,
      "ne": 281,
      "Ġna": 282,
      "ro": 283,
      "Ġpo": 284,
      "Ġo": 285,
      "ri": 286,
      "li": 287,
      "Ġb": 288,
      "to": 289,
      "ia": 290,
      "om": 291,
      "je": 292,
      "ho": 293,
      "sk": 294,
      "an": 295,
      "le": 296,
      "Ġc": 297,
      "Ġza": 298,
      "Ġu": 299,
      "in": 300,
      "te": 301,
      "ko": 302,
      "Ġsa": 303,
      "Ġne": 304,
      "Ġpre": 305,
      "ni": 306,
      "va": 307,
      "ta": 308,
      "Ġvy": 309,
      "Ġdo": 310,
      "na": 311,
      "ka": 312,
      "lo": 313,
      "Ġje": 314,
      "ti": 315,
      "ny": 316,
      "ova": 317,
      "Ġpri": 318,
      "da": 319,
      "de": 320,
      "vo": 321,
      "Ġma": 322,
      "no": 323,
      "ku": 324,
      "Ġro": 325,
      "ky": 326,
      "ci": 327,
      "po": 328,
      "me": 329,
      "Ġf": 330,
      "ru": 331,
      "ve": 332,
      "Ġto": 333,
      "Ġh": 334,
      "ju": 335,
      "mi": 336,
      "Ġe": 337,
      "ej": 338,
      "ak": 339,
      "di": 340,
      "nu": 341,
      "Ġi": 342,
      "sta": 343,
      "Ġkto": 344,
      "er": 345,
      "sti": 346,
      "Ġsi": 347,
      "tu": 348,
      "Ġpod": 349,
      "du": 350,
      "Ġko": 351,
      "lu": 352,
      "lov": 353,
      "ma": 354,
      "ÌĤ": 355,
      "Ġod": 356,
      "ce": 357,
      "Ġob": 358,
      "Ġsu": 359,
      "Ġmo": 360,
      "Ġaj": 361,
      "zi": 362,
      "si": 363,
      "vi": 364,
      "ed": 365,
      "kov": 366,
      "ja": 367,
      "Ġvo": 368,
      "Ġby": 369,
      "pa": 370,
      "rov": 371,
      "bo": 372,
      "ry": 373,
      "Ġpro": 374,
      "za": 375,
      "el": 376,
      "Ġbo": 377,
      "Ġako": 378,
      "nej": 379,
      "ba": 380,
      "Ġst": 381,
      "Ġl": 382,
      "do": 383,
      "vy": 384,
      "Ġpa": 385,
      "mo": 386,
      "pe": 387,
      "Ġbu": 388,
      "ke": 389,
      "Ġre": 390,
      "Ġho": 391,
      "Ġin": 392,
      "sky": 393,
      "Ġpred": 394,
      "dy": 395,
      "Ġch": 396,
      "sa": 397,
      "Ġnie": 398,
      "pra": 399,
      "or": 400,
      "by": 401,
      "ic": 402,
      "Ġtak": 403,
      "Ġslov": 404,
      "Ġale": 405,
      "ty": 406,
      "ove": 407,
      "Ġspo": 408,
      "sku": 409,
      "et": 410,
      "Ġpra": 411,
      "rie": 412,
      "ÌĪ": 413,
      "Ġka": 414,
      "Ġmi": 415,
      "den": 416,
      "Ġte": 417,
      "Ġvs": 418,
      "sla": 419,
      "mu": 420,
      "ska": 421,
      "Ġra": 422,
      "Ġroz": 423,
      "Ġsloven": 424,
      "as": 425,
      "ou": 426,
      "ly": 427,
      "bi": 428,
      "bu": 429,
      "Ġnaj": 430,
      "Ġsta": 431,
      "ca": 432,
      "men": 433,
      "tel": 434,
      "pi": 435,
      "Ġg": 436,
      "so": 437,
      "cia": 438,
      "Ġta": 439,
      "cie": 440,
      "Ġmu": 441,
      "Ġde": 442,
      "Ġuz": 443,
      "ist": 444,
      "tov": 445,
      "Ġeu": 446,
      "uje": 447,
      "ovat": 448,
      "anie": 449,
      "ani": 450,
      "be": 451,
      "ren": 452,
      "Ġkon": 453,
      "ske": 454,
      "ria": 455,
      "kla": 456,
      "al": 457,
      "dne": 458,
      "Ġme": 459,
      "Ġvla": 460,
      "Ġse": 461,
      "cho": 462,
      "Ġak": 463,
      "ĠĠ": 464,
      "ji": 465,
      "stu": 466,
      "ina": 467,
      "Ġsvo": 468,
      "Ġzo": 469,
      "kon": 470,
      "Ġle": 471,
      "Ġve": 472,
      "Ġty": 473,
      "enie": 474,
      "cov": 475,
      "nost": 476,
      "Ġva": 477,
      "Ġktore": 478,
      "Ġmin": 479,
      "it": 480,
      "nosti": 481,
      "Ġpodl": 482,
      "Ġja": 483,
      "ran": 484,
      "ha": 485,
      "ze": 486,
      "se": 487,
      "sko": 488,
      "sia": 489,
      "skej": 490,
      "vr": 491,
      "il": 492,
      "Ġso": 493,
      "my": 494,
      "Ġked": 495,
      "Ġktory": 496,
      "Ġkra": 497,
      "lne": 498,
      "Ġbude": 499,
      "ene": 500,
      "eni": 501,
      "raz": 502,
      "hla": 503,
      "ar": 504,
      "eny": 505,
      "kom": 506,
      "Ġdi": 507,
      "vne": 508,
      "Ġce": 509,
      "ovy": 510,
      "Ġstra": 511,
      "iny": 512,
      "Ġvel": 513,
      "zna": 514,
      "Ġsme": 515,
      "Ġlen": 516,
      "Ġbe": 517,
      "Ġtom": 518,
      "hra": 519,
      "Ġbra": 520,
      "nov": 521,
      "Ġvi": 522,
      "Ġjed": 523,
      "nom": 524,
      "Ġtu": 525,
      "sle": 526,
      "cky": 527,
      "Ġda": 528,
      "tne": 529,
      "Ġti": 530,
      "cii": 531,
      "Ġni": 532,
      "Ġsom": 533,
      "Ġpoli": 534,
      "Ġau": 535,
      "tom": 536,
      "cha": 537,
      "sto": 538,
      "cu": 539,
      "Ġru": 540,
      "az": 541,
      "ania": 542,
      "vie": 543,
      "kra": 544,
      "ovo": 545,
      "Ġpla": 546,
      "Ġich": 547,
      "enia": 548,
      "bra": 549,
      "Ġku": 550,
      "pu": 551,
      "kto": 552,
      "Ġju": 553,
      "ste": 554,
      "Ġli": 555,
      "loc": 556,
      "spe": 557,
      "ena": 558,
      "Ġex": 559,
      "rej": 560,
      "Ġvz": 561,
      "su": 562,
      "hu": 563,
      "Ġpr": 564,
      "Ġvia": 565,
      "Ġpoc": 566,
      "Ġtre": 567,
      "Ġeuro": 568,
      "Ġw": 569,
      "iel": 570,
      "Ġzd": 571,
      "ent": 572,
      "oval": 573,
      "mie": 574,
      "tisla": 575,
      "Ġaby": 576,
      "Ġfo": 577,
      "Ġspoloc": 578,
      "dia": 579,
      "rom": 580,
      "Ġmed": 581,
      "Ġten": 582,
      "Ġroku": 583,
      "Ġkom": 584,
      "Ġbez": 585,
      "Ġhla": 586,
      "dov": 587,
      "zy": 588,
      "pla": 589,
      "Ġvys": 590,
      "Ġstre": 591,
      "any": 592,
      "Ġbratisla": 593,
      "Ġjeho": 594,
      "dny": 595,
      "Ġno": 596,
      "Ġmie": 597,
      "Ġsve": 598,
      "kej": 599,
      "tia": 600,
      "hy": 601,
      "vu": 602,
      "lia": 603,
      "nic": 604,
      "Ġtr": 605,
      "Ġzi": 606,
      "ciu": 607,
      "Ġdom": 608,
      "for": 609,
      "Ġalebo": 610,
      "dz": 611,
      "Ġbudu": 612,
      "Ġze": 613,
      "pri": 614,
      "pre": 615,
      "Ġmoz": 616,
      "Ġspra": 617,
      "len": 618,
      "Ġpot": 619,
      "sie": 620,
      "Ġtie": 621,
      "Ġprie": 622,
      "ana": 623,
      "Ġfi": 624,
      "hod": 625,
      "Ġzac": 626,
      "Ġba": 627,
      "Ġviac": 628,
      "rne": 629,
      "lny": 630,
      "Ġani": 631,
      "spo": 632,
      "Ġj": 633,
      "Ġaz": 634,
      "dza": 635,
      "Ġprec": 636,
      "Ġsku": 637,
      "ovali": 638,
      "gu": 639,
      "kol": 640,
      "als": 641,
      "rz": 642,
      "Ġpoz": 643,
      "Ġbol": 644,
      "cke": 645,
      "Ġprog": 646,
      "ast": 647,
      "ga": 648,
      "Ġchce": 649,
      "dal": 650,
      "Ġbyt": 651,
      "Ġhra": 652,
      "Ġpar": 653,
      "roc": 654,
      "toc": 655,
      "stav": 656,
      "Ġdru": 657,
      "stup": 658,
      "Ġla": 659,
      "nes": 660,
      "uz": 661,
      "tny": 662,
      "Ġes": 663,
      "Ġnove": 664,
      "ili": 665,
      "klad": 666,
      "tra": 667,
      "Ġci": 668,
      "Ġminist": 669,
      "tvo": 670,
      "Ġban": 671,
      "ali": 672,
      "zo": 673,
      "Ġrokov": 674,
      "Ġnas": 675,
      "ps": 676,
      "Ġmusi": 677,
      "eb": 678,
      "etky": 679,
      "jte": 680,
      "Ġper": 681,
      "Ġdisku": 682,
      "Ġmili": 683,
      "Ġdosta": 684,
      "Ġsy": 685,
      "bne": 686,
      "tok": 687,
      "lova": 688,
      "Ġfu": 689,
      "aka": 690,
      "Ġtren": 691,
      "Ġjej": 692,
      "Ġpreto": 693,
      "kou": 694,
      "Ġmedzi": 695,
      "Ġpe": 696,
      "Ġhod": 697,
      "Ġnema": 698,
      "Ġzna": 699,
      "rt": 700,
      "Ġktora": 701,
      "Ġinfor": 702,
      "dom": 703,
      "skom": 704,
      "anu": 705,
      "nejs": 706,
      "Ġjedno": 707,
      "Ġauto": 708,
      "Ġved": 709,
      "js": 710,
      "del": 711,
      "Ġsr": 712,
      "nie": 713,
      "Ġfoto": 714,
      "inan": 715,
      "ter": 716,
      "stva": 717,
      "Ġnad": 718,
      "Ġsp": 719,
      "stvo": 720,
      "tie": 721,
      "Ġminu": 722,
      "Ġrok": 723,
      "Ġsvoj": 724,
      "uju": 725,
      "ber": 726,
      "ovej": 727,
      "Ġdnes": 728,
      "ble": 729,
      "Ġmy": 730,
      "Ġbolo": 731,
      "Ġproti": 732,
      "Ġkraj": 733,
      "Ġkaz": 734,
      "Ġcel": 735,
      "hl": 736,
      "Ġdl": 737,
      "dol": 738,
      "bli": 739,
      "meri": 740,
      "Ġpove": 741,
      "Ġeur": 742,
      "kt": 743,
      "Ġzvy": 744,
      "Ġha": 745,
      "chod": 746,
      "vat": 747,
      "Ġkri": 748,
      "vom": 749,
      "Ġdob": 750,
      "Ġpoliti": 751,
      "ziden": 752,
      "Ġperc": 753,
      "rg": 754,
      "kre": 755,
      "Ġfinan": 756,
      "Ġmal": 757,
      "udi": 758,
      "ivo": 759,
      "ovala": 760,
      "nou": 761,
      "Ġfa": 762,
      "Ġminister": 763,
      "Ġmen": 764,
      "mest": 765,
      "Ġlo": 766,
      "Ġvra": 767,
      "fi": 768,
      "Ġan": 769,
      "spev": 770,
      "Ġameri": 771,
      "Ġsvoje": 772,
      "Ġopa": 773,
      "rit": 774,
      "Ġvlast": 775,
      "Ġtra": 776,
      "Ġnepo": 777,
      "Ġslovensku": 778,
      "Ġtento": 779,
      "vny": 780,
      "Ġmali": 781,
      "Ġvol": 782,
      "com": 783,
      "sled": 784,
      "stavi": 785,
      "Ġproble": 786,
      "sne": 787,
      "nika": 788,
      "kaz": 789,
      "Ġsk": 790,
      "Ġkde": 791,
      "lom": 792,
      "klu": 793,
      "stre": 794,
      "via": 795,
      "Ġpreziden": 796,
      "vaju": 797,
      "lej": 798,
      "Ġmaju": 799,
      "enta": 800,
      "rs": 801,
      "he": 802,
      "dla": 803,
      "ovi": 804,
      "gi": 805,
      "vali": 806,
      "Ġnemo": 807,
      "pec": 808,
      "rc": 809,
      "gen": 810,
      "Ġmad": 811,
      "mer": 812,
      "Ġslova": 813,
      "Ġniekto": 814,
      "ila": 815,
      "Ġprogno": 816,
      "lez": 817,
      "Ġdu": 818,
      "at": 819,
      "Ġktori": 820,
      "tor": 821,
      "Ġtrendu": 822,
      "iet": 823,
      "Ġlu": 824,
      "sli": 825,
      "kluzi": 826,
      "tajte": 827,
      "Ġtri": 828,
      "Ġexkluzi": 829,
      "Ġboli": 830,
      "Ġdvo": 831,
      "rus": 832,
      "Ġmilio": 833,
      "Ġco": 834,
      "dic": 835,
      "Ġmat": 836,
      "Ġpreda": 837,
      "Ġbola": 838,
      "loz": 839,
      "cka": 840,
      "py": 841,
      "sob": 842,
      "rovna": 843,
      "Ġtro": 844,
      "Ġfir": 845,
      "ite": 846,
      "inu": 847,
      "Ġnez": 848,
      "Ġtam": 849,
      "hol": 850,
      "Ġvie": 851,
      "Ġweb": 852,
      "mov": 853,
      "Ġneza": 854,
      "mbra": 855,
      "Ġslu": 856,
      "Ġposla": 857,
      "Ġpol": 858,
      "ek": 859,
      "hnu": 860,
      "Ġzmen": 861,
      "Ġden": 862,
      "sy": 863,
      "ct": 864,
      "spevku": 865,
      "Ġzdra": 866,
      "Ġim": 867,
      "Ġnov": 868,
      "sit": 869,
      "Ġoc": 870,
      "dnu": 871,
      "tua": 872,
      "Ġspolu": 873,
      "ovane": 874,
      "Ġprid": 875,
      "Ġpi": 876,
      "sov": 877,
      "Ġnovy": 878,
      "Ġste": 879,
      "Ġiba": 880,
      "konc": 881,
      "zor": 882,
      "omi": 883,
      "Ġroc": 884,
      "Ġtoho": 885,
      "Ġrozhod": 886,
      "ckej": 887,
      "Ġnech": 888,
      "dni": 889,
      "rat": 890,
      "Ġsto": 891,
      "hli": 892,
      "Ġinve": 893,
      "vrdi": 894,
      "Ġsamo": 895,
      "tnu": 896,
      "Ġpodo": 897,
      "ing": 898,
      "Ġpomo": 899,
      "hranic": 900,
      "Ġdva": 901,
      "ge": 902,
      "chu": 903,
      "kona": 904,
      "noviny": 905,
      "dat": 906,
      "Ġprihla": 907,
      "Ġfic": 908,
      "Ġwebnoviny": 909,
      "Ġpotre": 910,
      "Ġtej": 911,
      "Ġverej": 912,
      "stra": 913,
      "Ġnedo": 914,
      "koch": 915,
      "prav": 916,
      "Ġman": 917,
      "ud": 918,
      "kova": 919,
      "Ġroka": 920,
      "enu": 921,
      "stov": 922,
      "Ġokre": 923,
      "Ġuvie": 924,
      "robi": 925,
      "tre": 926,
      "sat": 927,
      "Ġneho": 928,
      "sil": 929,
      "tvr": 930,
      "Ġslovenska": 931,
      "Ġslovensko": 932,
      "hto": 933,
      "Ġtele": 934,
      "zu": 935,
      "lan": 936,
      "Ġasi": 937,
      "Ġbratislava": 938,
      "leps": 939,
      "Ġnic": 940,
      "Ġdiskusie": 941,
      "Ġdoma": 942,
      "Ġpodpo": 943,
      "Ġria": 944,
      "ries": 945,
      "Ġtohto": 946,
      "Ġmar": 947,
      "Ġide": 948,
      "nec": 949,
      "Ġslovensky": 950,
      "tiz": 951,
      "Ġdan": 952,
      "Ġpotom": 953,
      "Ġtiez": 954,
      "ply": 955,
      "iat": 956,
      "Ġvoj": 957,
      "Ġneu": 958,
      "dli": 959,
      "Ġzamest": 960,
      "Ġsvoji": 961,
      "Ġneme": 962,
      "cich": 963,
      "rob": 964,
      "Ġry": 965,
      "Ġsko": 966,
      "lac": 967,
      "och": 968,
      "Ġal": 969,
      "Ġri": 970,
      "Ġnevy": 971,
      "Ġpu": 972,
      "ona": 973,
      "vs": 974,
      "Ġhovo": 975,
      "nit": 976,
      "Ġtisi": 977,
      "roj": 978,
      "Ġpov": 979,
      "Ġnebo": 980,
      "Ġnap": 981,
      "Ġprvy": 982,
      "Ġfran": 983,
      "fa": 984,
      "Ġmala": 985,
      "anov": 986,
      "chy": 987,
      "pade": 988,
      "Ġteraz": 989,
      "Ġfun": 990,
      "Ġponu": 991,
      "lamen": 992,
      "Ġlie": 993,
      "Ġinforma": 994,
      "Ġpovedal": 995,
      "pov": 996,
      "jem": 997,
      "Ġcho": 998,
      "val": 999,
      "Ġpoist": 1000,
      "ver": 1001,
      "Ġtomu": 1002,
      "ial": 1003,
      "Ġar": 1004,
      "Ġobc": 1005,
      "Ġmuz": 1006,
      "Ġnebu": 1007,
      "Ġagen": 1008,
      "Ġos": 1009,
      "poc": 1010,
      "Ġpris": 1011,
      "Ġele": 1012,
      "bez": 1013,
      "per": 1014,
      "Ġnej": 1015,
      "dn": 1016,
      "Ġchy": 1017,
      "ds": 1018,
      "dnej": 1019,
      "Ġnes": 1020,
      "Ġparlamen": 1021,
      "Ġoso": 1022,
      "Ġpres": 1023,
      "Ġmno": 1024,
      "Ġgo": 1025,
      "Ġpridanie": 1026,
      "Ġzahranic": 1027,
      "drz": 1028,
      "Ġpercent": 1029,
      "Ġsita": 1030,
      "chra": 1031,
      "tky": 1032,
      "rok": 1033,
      "Ġsluz": 1034,
      "Ġpremie": 1035,
      "Ġtoto": 1036,
      "Ġhodno": 1037,
      "Ġmesia": 1038,
      "nik": 1039,
      "vys": 1040,
      "tit": 1041,
      "Ġmla": 1042,
      "vatel": 1043,
      "Ġlebo": 1044,
      "nil": 1045,
      "Ġjeden": 1046,
      "Ġzdravo": 1047,
      "Ġhu": 1048,
      "ovanie": 1049,
      "kovy": 1050,
      "dit": 1051,
      "Ġneo": 1052,
      "tial": 1053,
      "Ġnapri": 1054,
      "Ġvyhla": 1055,
      "fe": 1056,
      "Ġtejto": 1057,
      "Ġukra": 1058,
      "ah": 1059,
      "Ġagentu": 1060,
      "Ġekon": 1061,
      "tro": 1062,
      "Ġprav": 1063,
      "dna": 1064,
      "Ġinte": 1065,
      "Ġkan": 1066,
      "Ġusa": 1067,
      "Ġrovna": 1068,
      "Ġpok": 1069,
      "jek": 1070,
      "nan": 1071,
      "iu": 1072,
      "gic": 1073,
      "Ġurc": 1074,
      "Ġfinanc": 1075,
      "bor": 1076,
      "caj": 1077,
      "tni": 1078,
      "Ġnajva": 1079,
      "Ġvyso": 1080,
      "gra": 1081,
      "Ġke": 1082,
      "Ġorg": 1083,
      "Ġsyste": 1084,
      "kove": 1085,
      "Ġkos": 1086,
      "Ġprezident": 1087,
      "mien": 1088,
      "Ġrobi": 1089,
      "Ġcent": 1090,
      "Ġsla": 1091,
      "Ġop": 1092,
      "go": 1093,
      "Ġtakmer": 1094,
      "tri": 1095,
      "Ġozna": 1096,
      "Ġzatial": 1097,
      "Ġtreba": 1098,
      "spoda": 1099,
      "Ġdeti": 1100,
      "Ġpracov": 1101,
      "sel": 1102,
      "lnej": 1103,
      "rec": 1104,
      "Ġosta": 1105,
      "dob": 1106,
      "Ġsvet": 1107,
      "Ġspa": 1108,
      "Ġnich": 1109,
      "Ġstu": 1110,
      "fo": 1111,
      "Ġkoru": 1112,
      "ld": 1113,
      "Ġzni": 1114,
      "Ġus": 1115,
      "Ġorgani": 1116,
      "Ġdobre": 1117,
      "telia": 1118,
      "Ġpria": 1119,
      "Ġcez": 1120,
      "Ġpolicaj": 1121,
      "Ġstrany": 1122,
      "Ġvide": 1123,
      "Ġnajma": 1124,
      "etko": 1125,
      "bri": 1126,
      "xi": 1127,
      "udia": 1128,
      "lie": 1129,
      "Ġteda": 1130,
      "mp": 1131,
      "Ġtaky": 1132,
      "roz": 1133,
      "Ġdve": 1134,
      "Ġprve": 1135,
      "Ġfor": 1136,
      "losti": 1137,
      "sty": 1138,
      "Ġoko": 1139,
      "Ġries": 1140,
      "Ġsocia": 1141,
      "roven": 1142,
      "Ġkraji": 1143,
      "Ġsna": 1144,
      "slu": 1145,
      "isto": 1146,
      "daj": 1147,
      "Ġpia": 1148,
      "Ġokrem": 1149,
      "Ġoby": 1150,
      "bliz": 1151,
      "Ġtomto": 1152,
      "ok": 1153,
      "Ġtvo": 1154,
      "Ġzm": 1155,
      "Ġpouz": 1156,
      "nia": 1157,
      "Ġniekol": 1158,
      "Ġniec": 1159,
      "Ġrod": 1160,
      "ier": 1161,
      "Ġdosia": 1162,
      "Ġsitua": 1163,
      "Ġprogra": 1164,
      "Ġskup": 1165,
      "rd": 1166,
      "tru": 1167,
      "Ġposlan": 1168,
      "Ġmil": 1169,
      "ski": 1170,
      "rejme": 1171,
      "liz": 1172,
      "Ġota": 1173,
      "Ġga": 1174,
      "iada": 1175,
      "Ġfil": 1176,
      "lic": 1177,
      "Ġdoda": 1178,
      "Ġkomu": 1179,
      "bec": 1180,
      "jst": 1181,
      "Ġzau": 1182,
      "ditel": 1183,
      "lit": 1184,
      "Ġmiest": 1185,
      "Ġslovenske": 1186,
      "Ġpredstavi": 1187,
      "Ġhovori": 1188,
      "pl": 1189,
      "Ġoba": 1190,
      "vola": 1191,
      "tr": 1192,
      "tba": 1193,
      "ujem": 1194,
      "alej": 1195,
      "Ġhl": 1196,
      "Ġdruh": 1197,
      "Ġjo": 1198,
      "Ġnebude": 1199,
      "Ġsch": 1200,
      "vrh": 1201,
      "Ġtake": 1202,
      "Ġsm": 1203,
      "Ġov": 1204,
      "Ġinform": 1205,
      "Ġbratislav": 1206,
      "tna": 1207,
      "pte": 1208,
      "est": 1209,
      "Ġjanu": 1210,
      "diel": 1211,
      "Ġprodu": 1212,
      "Ġobcho": 1213,
      "nych": 1214,
      "Ġine": 1215,
      "por": 1216,
      "Ġmesta": 1217,
      "vin": 1218,
      "bezpec": 1219,
      "dzaju": 1220,
      "Ġnao": 1221,
      "Ġposle": 1222,
      "bou": 1223,
      "Ġon": 1224,
      "Ġcha": 1225,
      "Ġdlho": 1226,
      "Ġvyz": 1227,
      "Ġtotiz": 1228,
      "Ġiny": 1229,
      "cku": 1230,
      "Ġdopra": 1231,
      "ticky": 1232,
      "Ġobla": 1233,
      "skych": 1234,
      "bil": 1235,
      "jom": 1236,
      "skeho": 1237,
      "Ġfe": 1238,
      "Ġtech": 1239,
      "die": 1240,
      "Ġzve": 1241,
      "Ġpenia": 1242,
      "pad": 1243,
      "dari": 1244,
      "Ġmysli": 1245,
      "Ġtvrdi": 1246,
      "Ġuviedol": 1247,
      "kami": 1248,
      "Ġskonc": 1249,
      "mena": 1250,
      "Ġhe": 1251,
      "tli": 1252,
      "Ġky": 1253,
      "vanie": 1254,
      "Ġktoru": 1255,
      "Ġfutba": 1256,
      "ruje": 1257,
      "Ġzmlu": 1258,
      "Ġrozhodnu": 1259,
      "ad": 1260,
      "Ġnajleps": 1261,
      "nice": 1262,
      "Ġelekt": 1263,
      "fer": 1264,
      "Ġobe": 1265,
      "mom": 1266,
      "asti": 1267,
      "Ġvec": 1268,
      "love": 1269,
      "Ġen": 1270,
      "lna": 1271,
      "vla": 1272,
      "Ġakti": 1273,
      "Ġpravi": 1274,
      "lian": 1275,
      "Ġpreva": 1276,
      "Ġpredse": 1277,
      "Ġjanua": 1278,
      "krac": 1279,
      "vky": 1280,
      "Ġkonc": 1281,
      "Ġdece": 1282,
      "icia": 1283,
      "der": 1284,
      "dil": 1285,
      "pis": 1286,
      "Ġkli": 1287,
      "Ġvyuz": 1288,
      "Ġsepte": 1289,
      "Ġfrancu": 1290,
      "tovy": 1291,
      "man": 1292,
      "Ġceny": 1293,
      "Ġurobi": 1294,
      "Ġriaditel": 1295,
      "Ġnevie": 1296,
      "Ġotvo": 1297,
      "sah": 1298,
      "jad": 1299,
      "dok": 1300,
      "tnej": 1301,
      "Ġveci": 1302,
      "Ġfico": 1303,
      "Ġposky": 1304,
      "Ġsvoju": 1305,
      "Ġrozho": 1306,
      "Ġdie": 1307,
      "Ġkla": 1308,
      "zni": 1309,
      "Ġkvali": 1310,
      "Ġhlavne": 1311,
      "Ġgene": 1312,
      "Ġslovenskej": 1313,
      "Ġorganiza": 1314,
      "ieho": 1315,
      "Ġpoku": 1316,
      "aj": 1317,
      "Ġpokrac": 1318,
      "rou": 1319,
      "poved": 1320,
      "Ġpeniaze": 1321,
      "tat": 1322,
      "Ġpen": 1323,
      "ved": 1324,
      "Ġpos": 1325,
      "Ġhospoda": 1326,
      "Ġpodmien": 1327,
      "Ġmalo": 1328,
      "Ġpretoz": 1329,
      "sen": 1330,
      "til": 1331,
      "Ġktorej": 1332,
      "lnych": 1333,
      "vis": 1334,
      "lin": 1335,
      "ieb": 1336,
      "Ġdvoch": 1337,
      "ilo": 1338,
      "plat": 1339,
      "ktu": 1340,
      "Ġuc": 1341,
      "Ġtrhu": 1342,
      "Ġzosta": 1343,
      "riek": 1344,
      "Ġbi": 1345,
      "um": 1346,
      "Ġneda": 1347,
      "Ġkeby": 1348,
      "Ġprostre": 1349,
      "tou": 1350,
      "ovor": 1351,
      "tva": 1352,
      "Ġsvojich": 1353,
      "iar": 1354,
      "Ġzamestnan": 1355,
      "Ġprez": 1356,
      "Ġodo": 1357,
      "Ġbratislave": 1358,
      "ciou": 1359,
      "Ġukraj": 1360,
      "ovani": 1361,
      "Ġnik": 1362,
      "zera": 1363,
      "Ġfirmy": 1364,
      "Ġpredstav": 1365,
      "Ġaugu": 1366,
      "rii": 1367,
      "ril": 1368,
      "Ġvideo": 1369,
      "dou": 1370,
      "Ġpozi": 1371,
      "Ġtieto": 1372,
      "dlo": 1373,
      "Ġmimo": 1374,
      "Ġdemo": 1375,
      "zaj": 1376,
      "kovej": 1377,
      "Ġleka": 1378,
      "Ġkontro": 1379,
      "tin": 1380,
      "pove": 1381,
      "Ġvyjad": 1382,
      "etrov": 1383,
      "Ġins": 1384,
      "pusti": 1385,
      "vit": 1386,
      "lok": 1387,
      "ck": 1388,
      "gan": 1389,
      "vod": 1390,
      "Ġgenera": 1391,
      "klada": 1392,
      "Ġkrajiny": 1393,
      "Ġnemoc": 1394,
      "gy": 1395,
      "Ġtrest": 1396,
      "Ġdovo": 1397,
      "Ġply": 1398,
      "rad": 1399,
      "Ġnepre": 1400,
      "Ġvyhra": 1401,
      "Ġpriprav": 1402,
      "plne": 1403,
      "tedy": 1404,
      "ceho": 1405,
      "dku": 1406,
      "ost": 1407,
      "Ġfon": 1408,
      "zem": 1409,
      "kti": 1410,
      "Ġrokoch": 1411,
      "Ġrez": 1412,
      "chto": 1413,
      "Ġslo": 1414,
      "Ġab": 1415,
      "pera": 1416,
      "Ġroky": 1417,
      "Ġskutoc": 1418,
      "bera": 1419,
      "denie": 1420,
      "Ġdvoj": 1421,
      "Ġzdroj": 1422,
      "Ġdni": 1423,
      "Ġspoj": 1424,
      "Ġmedz": 1425,
      "co": 1426,
      "Ġnapriek": 1427,
      "mci": 1428,
      "tku": 1429,
      "Ġkol": 1430,
      "Ġklu": 1431,
      "Ġzu": 1432,
      "spon": 1433,
      "Ġfunk": 1434,
      "ian": 1435,
      "Ġhisto": 1436,
      "ovalo": 1437,
      "Ġres": 1438,
      "Ġuli": 1439,
      "roch": 1440,
      "Ġpritom": 1441,
      "Ġrea": 1442,
      "Ġinterne": 1443,
      "lost": 1444,
      "Ġdra": 1445,
      "Ġmedzina": 1446,
      "bny": 1447,
      "iek": 1448,
      "Ġki": 1449,
      "Ġkandi": 1450,
      "Ġhokej": 1451,
      "Ġinvesti": 1452,
      "osti": 1453,
      "ns": 1454,
      "Ġopo": 1455,
      "Ġbanky": 1456,
      "vou": 1457,
      "ut": 1458,
      "Ġpodnika": 1459,
      "ovaz": 1460,
      "Ġkole": 1461,
      "Ġrast": 1462,
      "Ġdoka": 1463,
      "Ġtrh": 1464,
      "Ġpribliz": 1465,
      "Ġof": 1466,
      "Ġpostup": 1467,
      "duju": 1468,
      "ase": 1469,
      "Ġsvojho": 1470,
      "Ġraz": 1471,
      "znam": 1472,
      "Ġbezpec": 1473,
      "pli": 1474,
      "Ġokolo": 1475,
      "ovany": 1476,
      "Ġdruhy": 1477,
      "Ġdoho": 1478,
      "Ġscho": 1479,
      "Ġrozpoc": 1480,
      "feren": 1481,
      "Ġkre": 1482,
      "pskej": 1483,
      "Ġvd": 1484,
      "sol": 1485,
      "Ġnajvys": 1486,
      "fika": 1487,
      "jde": 1488,
      "Ġprojek": 1489,
      "Ġhro": 1490,
      "Ġstaro": 1491,
      "vni": 1492,
      "oku": 1493,
      "Ġpredaj": 1494,
      "Ġgre": 1495,
      "ivot": 1496,
      "Ġpatri": 1497,
      "Ġneja": 1498,
      "cej": 1499,
      "zne": 1500,
      "Ġprek": 1501,
      "les": 1502,
      "vili": 1503,
      "renie": 1504,
      "Ġleps": 1505,
      "Ġmini": 1506,
      "renia": 1507,
      "Ġcely": 1508,
      "Ġstretnu": 1509,
      "Ġpon": 1510,
      "Ġboj": 1511,
      "Ġsvojej": 1512,
      "vet": 1513,
      "Ġtlac": 1514,
      "Ġochra": 1515,
      "Ġmest": 1516,
      "razi": 1517,
      "Ġokto": 1518,
      "rovy": 1519,
      "lneho": 1520,
      "Ġciel": 1521,
      "Ġoblasti": 1522,
      "ven": 1523,
      "Ġobraz": 1524,
      "ltu": 1525,
      "viez": 1526,
      "spes": 1527,
      "buje": 1528,
      "Ġuve": 1529,
      "vania": 1530,
      "Ġzauji": 1531,
      "Ġspolupra": 1532,
      "Ġdn": 1533,
      "dra": 1534,
      "koj": 1535,
      "Ġvozi": 1536,
      "Ġapri": 1537,
      "viac": 1538,
      "rka": 1539,
      "deni": 1540,
      "Ġmanz": 1541,
      "Ġzdo": 1542,
      "hi": 1543,
      "Ġtelevi": 1544,
      "Ġtakto": 1545,
      "rua": 1546,
      "ss": 1547,
      "tec": 1548,
      "Ġmohli": 1549,
      "Ġsezo": 1550,
      "Ġcele": 1551,
      "lil": 1552,
      "ple": 1553,
      "Ġsie": 1554,
      "Ġdesat": 1555,
      "Ġfeb": 1556,
      "Ġnepri": 1557,
      "tyri": 1558,
      "Ġmld": 1559,
      "Ġsveta": 1560,
      "ovatel": 1561,
      "etci": 1562,
      "Ġjaz": 1563,
      "Ġstav": 1564,
      "Ġkomi": 1565,
      "Ġfak": 1566,
      "ovu": 1567,
      "Ġsobo": 1568,
      "Ġfebrua": 1569,
      "Ġbri": 1570,
      "sobi": 1571,
      "Ġhovor": 1572,
      "ten": 1573,
      "Ġpovaz": 1574,
      "Ġface": 1575,
      "Ġtakz": 1576,
      "sed": 1577,
      "inou": 1578,
      "Ġhy": 1579,
      "ami": 1580,
      "Ġregi": 1581,
      "Ġobja": 1582,
      "Ġdiva": 1583,
      "Ġpercenta": 1584,
      "Ġreali": 1585,
      "ala": 1586,
      "tan": 1587,
      "Ġvytvo": 1588,
      "Ġrepu": 1589,
      "Ġtru": 1590,
      "Ġoh": 1591,
      "jc": 1592,
      "Ġkrajina": 1593,
      "Ġzverej": 1594,
      "Ġzla": 1595,
      "Ġobra": 1596,
      "Ġnemu": 1597,
      "Ġpet": 1598,
      "Ġkedy": 1599,
      "Ġuza": 1600,
      "vol": 1601,
      "Ġnielen": 1602,
      "Ġspe": 1603,
      "Ġpolov": 1604,
      "Ġosla": 1605,
      "Ġcen": 1606,
      "Ġsvete": 1607,
      "tuje": 1608,
      "Ġchcu": 1609,
      "rna": 1610,
      "ada": 1611,
      "sal": 1612,
      "icky": 1613,
      "Ġlieta": 1614,
      "Ġkonku": 1615,
      "Ġdola": 1616,
      "rovn": 1617,
      "denia": 1618,
      "Ġekonomi": 1619,
      "los": 1620,
      "Ġrepubli": 1621,
      "itel": 1622,
      "Ġautomo": 1623,
      "Ġfacebo": 1624,
      "on": 1625,
      "voj": 1626,
      "Ġener": 1627,
      "pita": 1628,
      "Ġpozna": 1629,
      "hlasi": 1630,
      "Ġdote": 1631,
      "Ġnajviac": 1632,
      "mysel": 1633,
      "Ġneve": 1634,
      "Ġodmie": 1635,
      "Ġcentra": 1636,
      "rin": 1637,
      "lovy": 1638,
      "Ġporia": 1639,
      "tka": 1640,
      "pit": 1641,
      "Ġnechce": 1642,
      "gist": 1643,
      "dar": 1644,
      "Ġpreh": 1645,
      "Ġmesto": 1646,
      "Ġana": 1647,
      "Ġor": 1648,
      "asnosti": 1649,
      "Ġkle": 1650,
      "Ġpric": 1651,
      "Ġnu": 1652,
      "Ġbud": 1653,
      "rili": 1654,
      "Ġplat": 1655,
      "xu": 1656,
      "Ġas": 1657,
      "nili": 1658,
      "Ġzh": 1659,
      "Ġdost": 1660,
      "dili": 1661,
      "Ġprac": 1662,
      "Ġkandida": 1663,
      "kli": 1664,
      "Ġvzt": 1665,
      "Ġtvr": 1666,
      "nenie": 1667,
      "Ġaspon": 1668,
      "Ġpomoc": 1669,
      "Ġaky": 1670,
      "Ġsl": 1671,
      "Ġkultu": 1672,
      "kovi": 1673,
      "Ġhodsk": 1674,
      "pro": 1675,
      "duje": 1676,
      "Ġvoc": 1677,
      "rove": 1678,
      "rovi": 1679,
      "Ġad": 1680,
      "Ġzva": 1681,
      "Ġobvin": 1682,
      "Ġchla": 1683,
      "Ġat": 1684,
      "ovania": 1685,
      "Ġfirma": 1686,
      "Ġposledny": 1687,
      "Ġdet": 1688,
      "Ġzod": 1689,
      "Ġnikdy": 1690,
      "Ġministerstvo": 1691,
      "nku": 1692,
      "rel": 1693,
      "Ġzrus": 1694,
      "Ġpodni": 1695,
      "Ġis": 1696,
      "Ġpodiel": 1697,
      "Ġvnu": 1698,
      "van": 1699,
      "Ġraku": 1700,
      "Ġoz": 1701,
      "lovek": 1702,
      "Ġpovin": 1703,
      "zal": 1704,
      "Ġkvo": 1705,
      "Ġprija": 1706,
      "Ġmenej": 1707,
      "Ġvlastne": 1708,
      "Ġuka": 1709,
      "nky": 1710,
      "Ġseptembra": 1711,
      "asne": 1712,
      "azi": 1713,
      "Ġuni": 1714,
      "Ġbrit": 1715,
      "Ġprip": 1716,
      "Ġmiesto": 1717,
      "Ġzvys": 1718,
      "Ġspotre": 1719,
      "Ġsnaz": 1720,
      "hlo": 1721,
      "covia": 1722,
      "Ġpredpo": 1723,
      "ica": 1724,
      "Ġzabezpec": 1725,
      "Ġpotvrdi": 1726,
      "Ġschva": 1727,
      "Ġopera": 1728,
      "Ġhoci": 1729,
      "lili": 1730,
      "skou": 1731,
      "dej": 1732,
      "iec": 1733,
      "vil": 1734,
      "Ġcena": 1735,
      "darilo": 1736,
      "Ġnovembra": 1737,
      "Ġopozi": 1738,
      "Ġdesia": 1739,
      "Ġpren": 1740,
      "Ġstave": 1741,
      "Ġdecembra": 1742,
      "Ġpodpi": 1743,
      "Ġpoma": 1744,
      "Ġstan": 1745,
      "Ġpohl": 1746,
      "Ġmiliar": 1747,
      "vok": 1748,
      "zmu": 1749,
      "Ġmaje": 1750,
      "Ġmeste": 1751,
      "Ġtran": 1752,
      "Ġnena": 1753,
      "Ġvtedy": 1754,
      "Ġupo": 1755,
      "tili": 1756,
      "sledky": 1757,
      "Ġvodic": 1758,
      "Ġtalian": 1759,
      "ned": 1760,
      "deny": 1761,
      "Ġmens": 1762,
      "Ġmarca": 1763,
      "stri": 1764,
      "Ġjednodu": 1765,
      "ajs": 1766,
      "Ġzom": 1767,
      "rodne": 1768,
      "Ġbli": 1769,
      "ciach": 1770,
      "Ġmart": 1771,
      "Ġpovo": 1772,
      "Ġpredseda": 1773,
      "Ġopat": 1774,
      "pie": 1775,
      "Ġnaozaj": 1776,
      "dky": 1777,
      "som": 1778,
      "Ġnikto": 1779,
      "Ġuto": 1780,
      "Ġekonom": 1781,
      "Ġrepre": 1782,
      "pel": 1783,
      "dala": 1784,
      "Ġodbor": 1785,
      "ki": 1786,
      "pt": 1787,
      "Ġmohol": 1788,
      "Ġuva": 1789,
      "Ġvas": 1790,
      "Ġpartne": 1791,
      "Ġzrejme": 1792,
      "Ġbanka": 1793,
      "Ġproduk": 1794,
      "tovej": 1795,
      "Ġdokon": 1796,
      "Ġnesko": 1797,
      "bie": 1798,
      "Ġvr": 1799,
      "Ġver": 1800,
      "eniu": 1801,
      "Ġcu": 1802,
      "Ġkar": 1803,
      "Ġnedel": 1804,
      "lnu": 1805,
      "mne": 1806,
      "mpi": 1807,
      "zky": 1808,
      "doch": 1809,
      "liza": 1810,
      "Ġzapla": 1811,
      "vani": 1812,
      "che": 1813,
      "nila": 1814,
      "Ġzaria": 1815,
      "strie": 1816,
      "Ġaugusta": 1817,
      "Ġvlani": 1818,
      "Ġnova": 1819,
      "sticky": 1820,
      "nok": 1821,
      "Ġcy": 1822,
      "cit": 1823,
      "Ġobyvatel": 1824,
      "Ġdokonca": 1825,
      "iatku": 1826,
      "iach": 1827,
      "Ġobchod": 1828,
      "dela": 1829,
      "pil": 1830,
      "Ġamericky": 1831,
      "Ġdostal": 1832,
      "klady": 1833,
      "cen": 1834,
      "Ġodha": 1835,
      "Ġdruhej": 1836,
      "rovni": 1837,
      "Ġminima": 1838,
      "berat": 1839,
      "Ġstrana": 1840,
      "tvrt": 1841,
      "Ġnep": 1842,
      "Ġfacebooku": 1843,
      "Ġpodobne": 1844,
      "Ġzdravotni": 1845,
      "Ġpek": 1846,
      "ete": 1847,
      "Ġdlh": 1848,
      "Ġnapo": 1849,
      "Ġake": 1850,
      "rod": 1851,
      "Ġprezidenta": 1852,
      "nici": 1853,
      "klade": 1854,
      "zia": 1855,
      "lis": 1856,
      "ito": 1857,
      "Ġrovnako": 1858,
      "sem": 1859,
      "Ġkr": 1860,
      "min": 1861,
      "Ġpodnikatel": 1862,
      "pecia": 1863,
      "Ġslobo": 1864,
      "Ġiz": 1865,
      "moz": 1866,
      "Ġinak": 1867,
      "logic": 1868,
      "Ġpiatok": 1869,
      "slov": 1870,
      "mou": 1871,
      "zie": 1872,
      "Ġbie": 1873,
      "Ġnedosta": 1874,
      "tol": 1875,
      "Ġstredu": 1876,
      "ale": 1877,
      "Ġfinancii": 1878,
      "Ġisla": 1879,
      "Ġniek": 1880,
      "rsky": 1881,
      "skutoc": 1882,
      "Ġr": 1883,
      "mati": 1884,
      "Ġmate": 1885,
      "Ġira": 1886,
      "Ġtroch": 1887,
      "Ġnapi": 1888,
      "Ġznac": 1889,
      "Ġreprez": 1890,
      "Ġelektri": 1891,
      "vek": 1892,
      "pred": 1893,
      "vnej": 1894,
      "pak": 1895,
      "Ġponde": 1896,
      "ovia": 1897,
      "hovo": 1898,
      "Ġzran": 1899,
      "Ġjedna": 1900,
      "dine": 1901,
      "cami": 1902,
      "ruju": 1903,
      "Ġpondelok": 1904,
      "valy": 1905,
      "Ġnor": 1906,
      "Ġrusko": 1907,
      "Ġsan": 1908,
      "vala": 1909,
      "tal": 1910,
      "Ġdemokra": 1911,
      "slav": 1912,
      "au": 1913,
      "rny": 1914,
      "padne": 1915,
      "Ġaktivi": 1916,
      "dem": 1917,
      "nova": 1918,
      "reni": 1919,
      "Ġstrane": 1920,
      "Ġsamoz": 1921,
      "Ġosob": 1922,
      "Ġseba": 1923,
      "Ġdodal": 1924,
      "Ġanaly": 1925,
      "vra": 1926,
      "Ġsle": 1927,
      "Ġsne": 1928,
      "vedc": 1929,
      "uc": 1930,
      "Ġmajst": 1931,
      "seli": 1932,
      "im": 1933,
      "Ġupozor": 1934,
      "Ġmaxi": 1935,
      "Ġexist": 1936,
      "Ġkni": 1937,
      "Ġy": 1938,
      "Ġdial": 1939,
      "res": 1940,
      "Ġhviez": 1941,
      "Ġodvola": 1942,
      "Ġzamestna": 1943,
      "jekt": 1944,
      "Ġposu": 1945,
      "pon": 1946,
      "Ġpora": 1947,
      "koho": 1948,
      "tvrtok": 1949,
      "fu": 1950,
      "Ġkonec": 1951,
      "dene": 1952,
      "zka": 1953,
      "nuje": 1954,
      "stve": 1955,
      "cnosti": 1956,
      "Ġmieste": 1957,
      "dali": 1958,
      "Ġpl": 1959,
      "Ġutorok": 1960,
      "Ġpreja": 1961,
      "Ġcestu": 1962,
      "kola": 1963,
      "Ġgu": 1964,
      "Ġter": 1965,
      "sny": 1966,
      "Ġproce": 1967,
      "Ġtitu": 1968,
      "ctva": 1969,
      "kura": 1970,
      "ilom": 1971,
      "anom": 1972,
      "Ġmiesta": 1973,
      "Ġspravo": 1974,
      "Ġparlamentu": 1975,
      "Ġauta": 1976,
      "depo": 1977,
      "ini": 1978,
      "Ġkomuni": 1979,
      "Ġpozor": 1980,
      "Ġkons": 1981,
      "entov": 1982,
      "Ġfina": 1983,
      "Ġveri": 1984,
      "panie": 1985,
      "Ġdal": 1986,
      "Ġsmer": 1987,
      "ciona": 1988,
      "Ġsti": 1989,
      "Ġoznac": 1990,
      "Ġge": 1991,
      "hat": 1992,
      "Ġrady": 1993,
      "Ġniektory": 1994,
      "Ġkapita": 1995,
      "Ġmusia": 1996,
      "Ġzne": 1997,
      "Ġand": 1998,
      "Ġosem": 1999,
      "Ġkoali": 2000,
      "Ġsva": 2001,
      "aju": 2002,
      "Ġfar": 2003,
      "Ġskupiny": 2004,
      "Ġzodpoved": 2005,
      "ndy": 2006,
      "Ġprekva": 2007,
      "cko": 2008,
      "rta": 2009,
      "Ġrezor": 2010,
      "Ġfung": 2011,
      "Ġkoncer": 2012,
      "ron": 2013,
      "icke": 2014,
      "Ġrobit": 2015,
      "rum": 2016,
      "nka": 2017,
      "Ġnecha": 2018,
      "rova": 2019,
      "Ġprote": 2020,
      "toch": 2021,
      "Ġmesiac": 2022,
      "Ġstal": 2023,
      "Ġpotra": 2024,
      "Ġpriesku": 2025,
      "chov": 2026,
      "graf": 2027,
      "nd": 2028,
      "titu": 2029,
      "vna": 2030,
      "Ġposlanci": 2031,
      "Ġrozs": 2032,
      "ckom": 2033,
      "Ġminuly": 2034,
      "Ġktorom": 2035,
      "asto": 2036,
      "mera": 2037,
      "Ġprima": 2038,
      "rskej": 2039,
      "sac": 2040,
      "Ġmom": 2041,
      "Ġrober": 2042,
      "Ġmnoz": 2043,
      "dobne": 2044,
      "ita": 2045,
      "Ġmoto": 2046,
      "Ġodbo": 2047,
      "Ġdane": 2048,
      "vc": 2049,
      "Ġber": 2050,
      "Ġkl": 2051,
      "rite": 2052,
      "Ġpravdepo": 2053,
      "nene": 2054,
      "Ġsamozrejme": 2055,
      "lovej": 2056,
      "Ġkona": 2057,
      "Ġpodsta": 2058,
      "Ġplati": 2059,
      "Ġprvom": 2060,
      "Ġdos": 2061,
      "Ġeste": 2062,
      "Ġtes": 2063,
      "Ġnejak": 2064,
      "Ġneviem": 2065,
      "Ġvyra": 2066,
      "Ġchu": 2067,
      "rodny": 2068,
      "alo": 2069,
      "Ġang": 2070,
      "Ġok": 2071,
      "Ġvlastni": 2072,
      "Ġnavys": 2073,
      "plyv": 2074,
      "elez": 2075,
      "lou": 2076,
      "Ġobme": 2077,
      "Ġdiskusia": 2078,
      "vislosti": 2079,
      "rodnej": 2080,
      "Ġvybra": 2081,
      "zali": 2082,
      "Ġposled": 2083,
      "dsat": 2084,
      "Ġmr": 2085,
      "Ġpeter": 2086,
      "dh": 2087,
      "Ġznamena": 2088,
      "Ġmanaz": 2089,
      "tifika": 2090,
      "rori": 2091,
      "Ġkonca": 2092,
      "Ġturi": 2093,
      "Ġdrz": 2094,
      "rea": 2095,
      "cim": 2096,
      "Ġpresne": 2097,
      "ment": 2098,
      "Ġspomi": 2099,
      "fek": 2100,
      "Ġven": 2101,
      "Ġjedne": 2102,
      "Ġnovina": 2103,
      "Ġzasa": 2104,
      "Ġradi": 2105,
      "Ġaktua": 2106,
      "krom": 2107,
      "hnut": 2108,
      "Ġfilm": 2109,
      "Ġuskutoc": 2110,
      "Ġcenu": 2111,
      "deli": 2112,
      "hne": 2113,
      "spra": 2114,
      "tane": 2115,
      "Ġnahra": 2116,
      "Ġpriva": 2117,
      "ruz": 2118,
      "Ġkonkuren": 2119,
      "Ġjasne": 2120,
      "vosti": 2121,
      "Ġdenni": 2122,
      "kyn": 2123,
      "Ġly": 2124,
      "Ġschop": 2125,
      "Ġdoteraz": 2126,
      "Ġnovej": 2127,
      "ruc": 2128,
      "Ġspeva": 2129,
      "Ġobrazom": 2130,
      "spech": 2131,
      "Ġinter": 2132,
      "znac": 2133,
      "Ġniz": 2134,
      "hodno": 2135,
      "Ġspom": 2136,
      "Ġtreti": 2137,
      "komu": 2138,
      "jaz": 2139,
      "Ġprogram": 2140,
      "Ġreak": 2141,
      "Ġser": 2142,
      "Ġporovn": 2143,
      "Ġzra": 2144,
      "edy": 2145,
      "Ġsedem": 2146,
      "knu": 2147,
      "Ġnajmen": 2148,
      "kvi": 2149,
      "Ġbar": 2150,
      "sloven": 2151,
      "rila": 2152,
      "kan": 2153,
      "Ġdiet": 2154,
      "Ġregio": 2155,
      "znis": 2156,
      "iadne": 2157,
      "gie": 2158,
      "Ġobdob": 2159,
      "tej": 2160,
      "rene": 2161,
      "ol": 2162,
      "Ġmode": 2163,
      "Ġnit": 2164,
      "Ġaf": 2165,
      "Ġkate": 2166,
      "stor": 2167,
      "truktu": 2168,
      "Ġniektore": 2169,
      "dila": 2170,
      "vic": 2171,
      "ice": 2172,
      "razne": 2173,
      "Ġprete": 2174,
      "Ġoficia": 2175,
      "radu": 2176,
      "Ġrodic": 2177,
      "Ġinvesto": 2178,
      "Ġlete": 2179,
      "Ġmz": 2180,
      "Ġkana": 2181,
      "Ġjazy": 2182,
      "Ġpriesto": 2183,
      "Ġvraj": 2184,
      "kons": 2185,
      "Ġzleps": 2186,
      "kmi": 2187,
      "Ġsvojom": 2188,
      "Ġvystu": 2189,
      "Ġminule": 2190,
      "Ġtva": 2191,
      "Ġmaji": 2192,
      "Ġpoho": 2193,
      "ft": 2194,
      "ikov": 2195,
      "koly": 2196,
      "bili": 2197,
      "Ġjednotli": 2198,
      "Ġvstup": 2199,
      "Ġviano": 2200,
      "Ġmiliardy": 2201,
      "Ġtas": 2202,
      "stie": 2203,
      "enej": 2204,
      "Ġherec": 2205,
      "Ġpodarilo": 2206,
      "Ġpriamo": 2207,
      "Ġterori": 2208,
      "Ġverejne": 2209,
      "Ġreko": 2210,
      "Ġposil": 2211,
      "kup": 2212,
      "pas": 2213,
      "ner": 2214,
      "stom": 2215,
      "Ġpripra": 2216,
      "Ġzle": 2217,
      "Ġhan": 2218,
      "wa": 2219,
      "chode": 2220,
      "Ġvojen": 2221,
      "Ġtechno": 2222,
      "Ġzel": 2223,
      "Ġzao": 2224,
      "Ġzho": 2225,
      "stli": 2226,
      "Ġministerstva": 2227,
      "mber": 2228,
      "Ġsobotu": 2229,
      "tich": 2230,
      "Ġvyzera": 2231,
      "Ġmer": 2232,
      "Ġdia": 2233,
      "Ġoly": 2234,
      "Ġca": 2235,
      "roti": 2236,
      "Ġprostrie": 2237,
      "kazni": 2238,
      "Ġdruhe": 2239,
      "is": 2240,
      "listi": 2241,
      "Ġakcii": 2242,
      "Ġfanu": 2243,
      "ban": 2244,
      "ela": 2245,
      "bul": 2246,
      "ĠĠĠ": 2247,
      "ng": 2248,
      "line": 2249,
      "dio": 2250,
      "Ġcest": 2251,
      "stro": 2252,
      "tila": 2253,
      "Ġvolic": 2254,
      "Ġstup": 2255,
      "rovat": 2256,
      "Ġvlastny": 2257,
      "Ġsni": 2258,
      "rske": 2259,
      "Ġpaci": 2260,
      "Ġrozdiel": 2261,
      "nsky": 2262,
      "Ġviace": 2263,
      "Ġsud": 2264,
      "Ġukonc": 2265,
      "plo": 2266,
      "Ġdomov": 2267,
      "Ġrokmi": 2268,
      "tac": 2269,
      "Ġpostavi": 2270,
      "Ġmartin": 2271,
      "Ġchcel": 2272,
      "Ġprokura": 2273,
      "Ġpodnik": 2274,
      "neny": 2275,
      "Ġinformoval": 2276,
      "Ġmys": 2277,
      "Ġhlavny": 2278,
      "mto": 2279,
      "kam": 2280,
      "riet": 2281,
      "Ġruska": 2282,
      "Ġnapa": 2283,
      "Ġrizi": 2284,
      "Ġpotrebne": 2285,
      "Ġsamospra": 2286,
      "Ġoch": 2287,
      "mpa": 2288,
      "Ġrekla": 2289,
      "Ġtrans": 2290,
      "Ġhistori": 2291,
      "Ġrusky": 2292,
      "tuden": 2293,
      "Ġcien": 2294,
      "Ġleti": 2295,
      "Ġvid": 2296,
      "Ġrastu": 2297,
      "cela": 2298,
      "jedna": 2299,
      "daju": 2300,
      "Ġhned": 2301,
      "Ġnebol": 2302,
      "tle": 2303,
      "Ġjapon": 2304,
      "Ġpodu": 2305,
      "asu": 2306,
      "Ġuviedla": 2307,
      "land": 2308,
      "bov": 2309,
      "Ġarma": 2310,
      "zov": 2311,
      "Ġodpo": 2312,
      "Ġkau": 2313,
      "kovo": 2314,
      "Ġnacha": 2315,
      "Ġnesta": 2316,
      "Ġzvla": 2317,
      "Ġkata": 2318,
      "Ġzmeny": 2319,
      "Ġmaxima": 2320,
      "Ġpozrite": 2321,
      "vno": 2322,
      "Ġumoz": 2323,
      "Ġpracovni": 2324,
      "mbri": 2325,
      "Ġodsu": 2326,
      "dl": 2327,
      "nc": 2328,
      "kaju": 2329,
      "vuju": 2330,
      "em": 2331,
      "Ġzamestnancov": 2332,
      "Ġhlasov": 2333,
      "Ġpodmienky": 2334,
      "Ġzvo": 2335,
      "Ġtroj": 2336,
      "sledne": 2337,
      "Ġbru": 2338,
      "Ġelektro": 2339,
      "Ġutec": 2340,
      "Ġamericke": 2341,
      "Ġzara": 2342,
      "Ġzisk": 2343,
      "kcie": 2344,
      "Ġvyc": 2345,
      "Ġdobry": 2346,
      "Ġpohy": 2347,
      "Ġopra": 2348,
      "Ġinf": 2349,
      "Ġdce": 2350,
      "ton": 2351,
      "siu": 2352,
      "Ġgra": 2353,
      "Ġzadrz": 2354,
      "tora": 2355,
      "ery": 2356,
      "Ġtrump": 2357,
      "uj": 2358,
      "Ġmn": 2359,
      "vodne": 2360,
      "Ġx": 2361,
      "Ġprojekt": 2362,
      "Ġinformovala": 2363,
      "Ġpara": 2364,
      "Ġot": 2365,
      "zit": 2366,
      "Ġzisti": 2367,
      "Ġukrajin": 2368,
      "kuje": 2369,
      "Ġcesta": 2370,
      "vale": 2371,
      "Ġpredcha": 2372,
      "hov": 2373,
      "vnost": 2374,
      "Ġobdo": 2375,
      "ich": 2376,
      "Ġdostali": 2377,
      "Ġtou": 2378,
      "kali": 2379,
      "Ġkrajine": 2380,
      "pez": 2381,
      "Ġdy": 2382,
      "Ġrozhodnutie": 2383,
      "nk": 2384,
      "Ġuniver": 2385,
      "Ġpy": 2386,
      "Ġobrov": 2387,
      "lenie": 2388,
      "vost": 2389,
      "Ġkro": 2390,
      "Ġbrita": 2391,
      "Ġzazna": 2392,
      "Ġrefor": 2393,
      "Ġdostat": 2394,
      "isti": 2395,
      "skal": 2396,
      "port": 2397,
      "Ġosobne": 2398,
      "Ġpodporu": 2399,
      "Ġjednu": 2400,
      "dovat": 2401,
      "Ġvza": 2402,
      "Ġnemaju": 2403,
      "nii": 2404,
      "Ġuzav": 2405,
      "Ġvole": 2406,
      "Ġoproti": 2407,
      "Ġnew": 2408,
      "ob": 2409,
      "Ġben": 2410,
      "th": 2411,
      "Ġhrani": 2412,
      "Ġnezamest": 2413,
      "Ġnamie": 2414,
      "rstva": 2415,
      "ctvom": 2416,
      "paniel": 2417,
      "vovat": 2418,
      "Ġvstu": 2419,
      "Ġostatny": 2420,
      "Ġmimoria": 2421,
      "Ġpoduja": 2422,
      "Ġjednej": 2423,
      "Ġspl": 2424,
      "us": 2425,
      "Ġpru": 2426,
      "Ġudrz": 2427,
      "Ġzdiel": 2428,
      "tuju": 2429,
      "Ġtret": 2430,
      "bia": 2431,
      "Ġume": 2432,
      "Ġnec": 2433,
      "skat": 2434,
      "Ġnaro": 2435,
      "Ġmajstrov": 2436,
      "Ġplo": 2437,
      "Ġakcie": 2438,
      "Ġprizna": 2439,
      "Ġprvej": 2440,
      "rky": 2441,
      "Ġpredsa": 2442,
      "Ġpovedat": 2443,
      "Ġpodoz": 2444,
      "rmi": 2445,
      "Ġpresvedc": 2446,
      "Ġpokial": 2447,
      "ity": 2448,
      "astni": 2449,
      "Ġdoku": 2450,
      "Ġam": 2451,
      "Ġsuper": 2452,
      "cou": 2453,
      "gran": 2454,
      "Ġpou": 2455,
      "zku": 2456,
      "Ġzloz": 2457,
      "Ġfesti": 2458,
      "Ġvidi": 2459,
      "tko": 2460,
      "Ġnaopak": 2461,
      "Ġpredsed": 2462,
      "Ġcestov": 2463,
      "Ġnejaky": 2464,
      "Ġost": 2465,
      "Ġusd": 2466,
      "Ġpodla": 2467,
      "Ġautomobi": 2468,
      "Ġnajmenej": 2469,
      "zat": 2470,
      "Ġkola": 2471,
      "pr": 2472,
      "Ġtrna": 2473,
      "kat": 2474,
      "Ġmora": 2475,
      "rni": 2476,
      "dost": 2477,
      "Ġnotifika": 2478,
      "Ġhrozi": 2479,
      "rez": 2480,
      "ticke": 2481,
      "Ġdopl": 2482,
      "vas": 2483,
      "pol": 2484,
      "Ġvzdela": 2485,
      "adom": 2486,
      "Ġzat": 2487,
      "ovni": 2488,
      "Ġodi": 2489,
      "Ġnepod": 2490,
      "Ġkdh": 2491,
      "ovs": 2492,
      "Ġstrie": 2493,
      "Ġkonkre": 2494,
      "Ġskupina": 2495,
      "vodu": 2496,
      "vnych": 2497,
      "Ġmlady": 2498,
      "Ġiste": 2499,
      "Ġseve": 2500,
      "Ġkancela": 2501,
      "Ġpravdepodobne": 2502,
      "Ġobmedz": 2503,
      "smi": 2504,
      "Ġobdobi": 2505,
      "Ġpie": 2506,
      "Ġzb": 2507,
      "Ġnebolo": 2508,
      "hou": 2509,
      "Ġzas": 2510,
      "Ġnevi": 2511,
      "Ġtrenc": 2512,
      "Ġformu": 2513,
      "ije": 2514,
      "Ġporus": 2515,
      "Ġdohod": 2516,
      "vnu": 2517,
      "Ġdar": 2518,
      "Ġnovu": 2519,
      "Ġnezna": 2520,
      "Ġcelu": 2521,
      "Ġbratislavy": 2522,
      "Ġmesiacov": 2523,
      "Ġochranu": 2524,
      "Ġtla": 2525,
      "Ġpoha": 2526,
      "tori": 2527,
      "vodov": 2528,
      "Ġlyz": 2529,
      "kladne": 2530,
      "kladov": 2531,
      "Ġstrate": 2532,
      "Ġpripomi": 2533,
      "Ġposledne": 2534,
      "Ġstac": 2535,
      "Ġkatego": 2536,
      "mina": 2537,
      "tali": 2538,
      "Ġhru": 2539,
      "Ġnom": 2540,
      "bs": 2541,
      "Ġstat": 2542,
      "Ġprostredni": 2543,
      "pust": 2544,
      "Ġautobu": 2545,
      "Ġpotrebuje": 2546,
      "Ġpredovs": 2547,
      "Ġvzni": 2548,
      "ivota": 2549,
      "Ġhote": 2550,
      "Ġreag": 2551,
      "sledok": 2552,
      "Ġsas": 2553,
      "Ġsebe": 2554,
      "Ġzach": 2555,
      "Ġvyda": 2556,
      "Ġameric": 2557,
      "Ġprehlia": 2558,
      "Ġprehra": 2559,
      "ros": 2560,
      "sic": 2561,
      "Ġtelefo": 2562,
      "Ġpan": 2563,
      "riem": 2564,
      "Ġtasr": 2565,
      "nicky": 2566,
      "Ġsebou": 2567,
      "Ġemi": 2568,
      "Ġpridani": 2569,
      "Ġplynu": 2570,
      "Ġpsy": 2571,
      "Ġdre": 2572,
      "Ġkotle": 2573,
      "tneho": 2574,
      "Ġnimi": 2575,
      "Ġdef": 2576,
      "Ġnorma": 2577,
      "Ġhlas": 2578,
      "Ġms": 2579,
      "Ġmosk": 2580,
      "esky": 2581,
      "tnych": 2582,
      "Ġag": 2583,
      "innost": 2584,
      "hlasite": 2585,
      "Ġtova": 2586,
      "Ġsdku": 2587,
      "Ġfede": 2588,
      "Ġpopu": 2589,
      "asny": 2590,
      "Ġvysvet": 2591,
      "Ġulici": 2592,
      "Ġpriemer": 2593,
      "Ġpolicajti": 2594,
      "novu": 2595,
      "vka": 2596,
      "Ġurobit": 2597,
      "nskej": 2598,
      "dajne": 2599,
      "Ġrada": 2600,
      "Ġpoziti": 2601,
      "vana": 2602,
      "merne": 2603,
      "siet": 2604,
      "Ġvyply": 2605,
      "Ġsmr": 2606,
      "Ġsadz": 2607,
      "Ġmajitel": 2608,
      "Ġmas": 2609,
      "Ġnovo": 2610,
      "slus": 2611,
      "Ġdat": 2612,
      "Ġodborni": 2613,
      "Ġfica": 2614,
      "tati": 2615,
      "Ġkoncom": 2616,
      "Ġaustra": 2617,
      "Ġmet": 2618,
      "chlo": 2619,
      "Ġministra": 2620,
      "Ġputin": 2621,
      "Ġprofe": 2622,
      "neni": 2623,
      "Ġkilom": 2624,
      "ir": 2625,
      "Ġinde": 2626,
      "Ġslovenskom": 2627,
      "Ġobsa": 2628,
      "haju": 2629,
      "Ġzmluvy": 2630,
      "Ġliec": 2631,
      "penie": 2632,
      "Ġarch": 2633,
      "Ġcir": 2634,
      "ine": 2635,
      "Ġchvi": 2636,
      "sticke": 2637,
      "Ġvysoky": 2638,
      "ruba": 2639,
      "rska": 2640,
      "Ġposta": 2641,
      "pes": 2642,
      "hynu": 2643,
      "Ġlondy": 2644,
      "Ġbla": 2645,
      "hom": 2646,
      "Ġstro": 2647,
      "encov": 2648,
      "Ġstov": 2649,
      "icu": 2650,
      "Ġdlhodo": 2651,
      "fina": 2652,
      "es": 2653,
      "pili": 2654,
      "Ġextre": 2655,
      "Ġrodin": 2656,
      "poj": 2657,
      "Ġmedziroc": 2658,
      "Ġkomple": 2659,
      "ken": 2660,
      "Ġprinie": 2661,
      "Ġskve": 2662,
      "Ġtaka": 2663,
      "Ġrezer": 2664,
      "Ġreferen": 2665,
      "senie": 2666,
      "Ġmohla": 2667,
      "zko": 2668,
      "Ġpari": 2669,
      "nska": 2670,
      "Ġvznik": 2671,
      "enti": 2672,
      "Ġchra": 2673,
      "Ġpriatel": 2674,
      "Ġonline": 2675,
      "Ġropy": 2676,
      "Ġzlo": 2677,
      "rac": 2678,
      "klo": 2679,
      "tova": 2680,
      "Ġnepa": 2681,
      "rajs": 2682,
      "Ġzasia": 2683,
      "Ġdostane": 2684,
      "Ġpriemysel": 2685,
      "rak": 2686,
      "Ġpredsedu": 2687,
      "zn": 2688,
      "Ġilu": 2689,
      "Ġlegi": 2690,
      "vneho": 2691,
      "qu": 2692,
      "miest": 2693,
      "Ġzhruba": 2694,
      "kro": 2695,
      "slo": 2696,
      "Ġnakon": 2697,
      "Ġpostupne": 2698,
      "jo": 2699,
      "Ġnebudu": 2700,
      "rast": 2701,
      "tovat": 2702,
      "riu": 2703,
      "dno": 2704,
      "Ġeura": 2705,
      "Ġmateria": 2706,
      "ks": 2707,
      "tiza": 2708,
      "Ġhlu": 2709,
      "Ġrov": 2710,
      "Ġblo": 2711,
      "Ġpocho": 2712,
      "zala": 2713,
      "Ġplatit": 2714,
      "Ġfiriem": 2715,
      "Ġmaly": 2716,
      "stal": 2717,
      "Ġnejake": 2718,
      "Ġnakoniec": 2719,
      "Ġohroz": 2720,
      "Ġsekto": 2721,
      "eo": 2722,
      "Ġzaz": 2723,
      "dii": 2724,
      "sobom": 2725,
      "dac": 2726,
      "Ġopatrenia": 2727,
      "ejs": 2728,
      "Ġdoc": 2729,
      "tt": 2730,
      "zv": 2731,
      "Ġnasle": 2732,
      "Ġbudeme": 2733,
      "ovne": 2734,
      "Ġnavrh": 2735,
      "Ġpresa": 2736,
      "tis": 2737,
      "Ġhroz": 2738,
      "vodom": 2739,
      "kovu": 2740,
      "Ġrads": 2741,
      "Ġpozem": 2742,
      "sili": 2743,
      "Ġpredty": 2744,
      "bratisla": 2745,
      "Ġmale": 2746,
      "tika": 2747,
      "Ġdopravy": 2748,
      "Ġnajbliz": 2749,
      "Ġbre": 2750,
      "ovom": 2751,
      "innosti": 2752,
      "Ġple": 2753,
      "Ġvladi": 2754,
      "zny": 2755,
      "Ġjoze": 2756,
      "Ġporovnani": 2757,
      "lila": 2758,
      "ms": 2759,
      "Ġbran": 2760,
      "Ġmuseli": 2761,
      "Ġpostav": 2762,
      "Ġminulosti": 2763,
      "Ġpoliticky": 2764,
      "ph": 2765,
      "Ġmesac": 2766,
      "Ġpredpoklada": 2767,
      "tove": 2768,
      "lec": 2769,
      "vila": 2770,
      "ivotne": 2771,
      "Ġvraz": 2772,
      "Ġthe": 2773,
      "buju": 2774,
      "pila": 2775,
      "omo": 2776,
      "Ġviacery": 2777,
      "Ġned": 2778,
      "autor": 2779,
      "Ġvedu": 2780,
      "boru": 2781,
      "Ġdoz": 2782,
      "Ġpokles": 2783,
      "Ġtechnolo": 2784,
      "chal": 2785,
      "arsku": 2786,
      "hal": 2787,
      "Ġmladi": 2788,
      "rovej": 2789,
      "Ġizra": 2790,
      "Ġpama": 2791,
      "plynu": 2792,
      "Ġdievc": 2793,
      "Ġvzra": 2794,
      "Ġzaloz": 2795,
      "cuju": 2796,
      "Ġzomrel": 2797,
      "Ġkru": 2798,
      "Ġbom": 2799,
      "chle": 2800,
      "Ġpas": 2801,
      "tyroch": 2802,
      "vnom": 2803,
      "Ġkry": 2804,
      "arsky": 2805,
      "Ġrozpra": 2806,
      "lc": 2807,
      "Ġrusku": 2808,
      "Ġtradic": 2809,
      "ade": 2810,
      "Ġkomunika": 2811,
      "Ġsns": 2812,
      "Ġstani": 2813,
      "Ġsiet": 2814,
      "Ġbuda": 2815,
      "Ġstoji": 2816,
      "kula": 2817,
      "son": 2818,
      "spevok": 2819,
      "Ġcie": 2820,
      "Ġdro": 2821,
      "diska": 2822,
      "Ġaka": 2823,
      "puju": 2824,
      "Ġvykona": 2825,
      "ul": 2826,
      "Ġchlap": 2827,
      "mil": 2828,
      "Ġbali": 2829,
      "Ġfotograf": 2830,
      "Ġsub": 2831,
      "Ġvedenie": 2832,
      "Ġposlancov": 2833,
      "Ġzabi": 2834,
      "Ġbystri": 2835,
      "Ġglo": 2836,
      "Ġmicha": 2837,
      "oubi": 2838,
      "Ġstala": 2839,
      "Ġnemusi": 2840,
      "Ġpopra": 2841,
      "tovic": 2842,
      "Ġmilia": 2843,
      "Ġtrz": 2844,
      "adu": 2845,
      "hospoda": 2846,
      "tisi": 2847,
      "Ġruske": 2848,
      "Ġvolieb": 2849,
      "eme": 2850,
      "Ġdruhom": 2851,
      "Ġorga": 2852,
      "vku": 2853,
      "iela": 2854,
      "Ġrokovania": 2855,
      "Ġzahynu": 2856,
      "Ġkonferen": 2857,
      "mysle": 2858,
      "Ġludi": 2859,
      "ktra": 2860,
      "Ġnemocnice": 2861,
      "Ġods": 2862,
      "Ġtol": 2863,
      "Ġnato": 2864,
      "very": 2865,
      "Ġcesty": 2866,
      "Ġhovorca": 2867,
      "Ġmohlo": 2868,
      "pska": 2869,
      "vam": 2870,
      "Ġteplo": 2871,
      "Ġfakt": 2872,
      "Ġvladimi": 2873,
      "dajs": 2874,
      "zii": 2875,
      "Ġher": 2876,
      "tla": 2877,
      "Ġcelkom": 2878,
      "Ġvybu": 2879,
      "Ġpredstavitel": 2880,
      "Ġzastavi": 2881,
      "Ġobsah": 2882,
      "iatkom": 2883,
      "Ġpravda": 2884,
      "ger": 2885,
      "ritel": 2886,
      "Ġuniverzi": 2887,
      "rn": 2888,
      "vany": 2889,
      "trov": 2890,
      "Ġvidiet": 2891,
      "Ġhodi": 2892,
      "pia": 2893,
      "vatelia": 2894,
      "iz": 2895,
      "Ġmobi": 2896,
      "bratislava": 2897,
      "nati": 2898,
      "akov": 2899,
      "znych": 2900,
      "Ġpat": 2901,
      "Ġnhl": 2902,
      "bat": 2903,
      "Ġuplynu": 2904,
      "Ġnebezpec": 2905,
      "vuje": 2906,
      "par": 2907,
      "tar": 2908,
      "Ġsuli": 2909,
      "vajc": 2910,
      "Ġkarie": 2911,
      "Ġrodiny": 2912,
      "dkov": 2913,
      "meni": 2914,
      "eobec": 2915,
      "mny": 2916,
      "valo": 2917,
      "Ġlac": 2918,
      "Ġaku": 2919,
      "Ġbodov": 2920,
      "Ġoni": 2921,
      "Ġtitul": 2922,
      "Ġdani": 2923,
      "Ġori": 2924,
      "nicke": 2925,
      "Ġdomu": 2926,
      "Ġjediny": 2927,
      "Ġpricha": 2928,
      "paci": 2929,
      "Ġkm": 2930,
      "Ġtaj": 2931,
      "plati": 2932,
      "Ġrozhodol": 2933,
      "ard": 2934,
      "dzat": 2935,
      "Ġzdruz": 2936,
      "Ġnamiesto": 2937,
      "roku": 2938,
      "Ġruz": 2939,
      "hodne": 2940,
      "Ġstalo": 2941,
      "Ġtrochu": 2942,
      "rati": 2943,
      "Ġmusiet": 2944,
      "Ġludia": 2945,
      "Ġnemecku": 2946,
      "Ġrepubliky": 2947,
      "Ġboha": 2948,
      "Ġpriebe": 2949,
      "tvor": 2950,
      "ub": 2951,
      "hlas": 2952,
      "Ġautor": 2953,
      "Ġzave": 2954,
      "Ġstare": 2955,
      "novy": 2956,
      "neho": 2957,
      "Ġslovak": 2958,
      "Ġnapokon": 2959,
      "Ġrekor": 2960,
      "ww": 2961,
      "ting": 2962,
      "Ġnapr": 2963,
      "dka": 2964,
      "aliz": 2965,
      "ts": 2966,
      "Ġpopla": 2967,
      "fekti": 2968,
      "oubiznis": 2969,
      "Ġpostu": 2970,
      "Ġnemali": 2971,
      "Ġukaz": 2972,
      "Ġdovolen": 2973,
      "Ġislam": 2974,
      "Ġtrie": 2975,
      "moc": 2976,
      "Ġtzv": 2977,
      "tovi": 2978,
      "Ġdis": 2979,
      "Ġmatovic": 2980,
      "Ġveku": 2981,
      "Ġuda": 2982,
      "era": 2983,
      "Ġjad": 2984,
      "arska": 2985,
      "tera": 2986,
      "lenov": 2987,
      "Ġzly": 2988,
      "bami": 2989,
      "kovat": 2990,
      "Ġnemal": 2991,
      "Ġabsol": 2992,
      "Ġocen": 2993,
      "ely": 2994,
      "Ġobci": 2995,
      "ien": 2996,
      "kcia": 2997,
      "Ġkalin": 2998,
      "nke": 2999,
      "Ġmedia": 3000,
      "Ġdostala": 3001,
      "Ġskla": 3002,
      "Ġkoz": 3003,
      "Ġmeno": 3004,
      "Ġrela": 3005,
      "Ġverejny": 3006,
      "Ġrade": 3007,
      "Ġpracovny": 3008,
      "Ġmost": 3009,
      "Ġautomobil": 3010,
      "Ġregist": 3011,
      "ovn": 3012,
      "plom": 3013,
      "ovz": 3014,
      "ancu": 3015,
      "Ġvyba": 3016,
      "reny": 3017,
      "Ġmomenta": 3018,
      "Ġbudapes": 3019,
      "hoch": 3020,
      "stat": 3021,
      "Ġtrestne": 3022,
      "Ġelektra": 3023,
      "Ġniekedy": 3024,
      "Ġsused": 3025,
      "Ġval": 3026,
      "Ġpredstavuje": 3027,
      "tran": 3028,
      "ingu": 3029,
      "itosti": 3030,
      "lnom": 3031,
      "kovom": 3032,
      "Ġnemecka": 3033,
      "Ġovla": 3034,
      "Ġpriestor": 3035,
      "rovany": 3036,
      "Ġkonta": 3037,
      "od": 3038,
      "tes": 3039,
      "Ġenerge": 3040,
      "voja": 3041,
      "Ġmnohy": 3042,
      "boj": 3043,
      "zemi": 3044,
      "iju": 3045,
      "ff": 3046,
      "roby": 3047,
      "Ġzastu": 3048,
      "Ġchceli": 3049,
      "Ġmigran": 3050,
      "Ġmoze": 3051,
      "Ġtermi": 3052,
      "chlost": 3053,
      "Ġnedoka": 3054,
      "Ġanalyti": 3055,
      "Ġzabu": 3056,
      "Ġdvaja": 3057,
      "Ġekonomiky": 3058,
      "Ġspravodli": 3059,
      "Ġpredloz": 3060,
      "Ġchri": 3061,
      "toku": 3062,
      "ura": 3063,
      "Ġhor": 3064,
      "Ġprojektu": 3065,
      "bal": 3066,
      "kladny": 3067,
      "Ġspla": 3068,
      "Ġrozhodne": 3069,
      "Ġstanov": 3070,
      "lnym": 3071,
      "huju": 3072,
      "ele": 3073,
      "Ġzniz": 3074,
      "baju": 3075,
      "Ġsmerom": 3076,
      "Ġvianoc": 3077,
      "sii": 3078,
      "koda": 3079,
      "Ġvymen": 3080,
      "Ġcelkovo": 3081,
      "Ġmena": 3082,
      "Ġmetrov": 3083,
      "Ġoboch": 3084,
      "Ġsmu": 3085,
      "Ġnavs": 3086,
      "Ġdispo": 3087,
      "Ġjedny": 3088,
      "tart": 3089,
      "Ġdokumen": 3090,
      "Ġilustra": 3091,
      "tami": 3092,
      "Ġjednoducho": 3093,
      "aniu": 3094,
      "Ġreprezenta": 3095,
      "Ġdvom": 3096,
      "leran": 3097,
      "Ġsc": 3098,
      "Ġcit": 3099,
      "Ġregu": 3100,
      "Ġrobert": 3101,
      "desia": 3102,
      "Ġsil": 3103,
      "Ġzobra": 3104,
      "Ġzba": 3105,
      "nica": 3106,
      "Ġodporu": 3107,
      "rek": 3108,
      "nal": 3109,
      "Ġniektori": 3110,
      "Ġobdobie": 3111,
      "gati": 3112,
      "Ġpost": 3113,
      "ampi": 3114,
      "Ġeurozo": 3115,
      "Ġnovin": 3116,
      "Ġivan": 3117,
      "Ġvozidiel": 3118,
      "Ġchcete": 3119,
      "Ġpotvrdil": 3120,
      "ziu": 3121,
      "Ġnoc": 3122,
      "tovanie": 3123,
      "Ġrekons": 3124,
      "bytoc": 3125,
      "Ġstretnuti": 3126,
      "encia": 3127,
      "rab": 3128,
      "torov": 3129,
      "Ġmodel": 3130,
      "rady": 3131,
      "Ġur": 3132,
      "Ġodovz": 3133,
      "Ġtvor": 3134,
      "Ġmoder": 3135,
      "Ġsvia": 3136,
      "Ġstupn": 3137,
      "Ġpovedala": 3138,
      "roma": 3139,
      "eskej": 3140,
      "Ġnev": 3141,
      "Ġdeva": 3142,
      "zmus": 3143,
      "Ġzase": 3144,
      "Ġvzhl": 3145,
      "Ġstoroc": 3146,
      "mia": 3147,
      "nove": 3148,
      "iciach": 3149,
      "nos": 3150,
      "Ġema": 3151,
      "Ġduna": 3152,
      "taju": 3153,
      "Ġkorup": 3154,
      "zke": 3155,
      "Ġprva": 3156,
      "Ġodpove": 3157,
      "konom": 3158,
      "Ġdvadsat": 3159,
      "Ġpredl": 3160,
      "ap": 3161,
      "Ġrozvoj": 3162,
      "Ġnezamestnan": 3163,
      "Ġzbra": 3164,
      "Ġeta": 3165,
      "Ġumiest": 3166,
      "Ġmec": 3167,
      "Ġpribu": 3168,
      "Ġneboli": 3169,
      "Ġap": 3170,
      "Ġposti": 3171,
      "Ġovel": 3172,
      "Ġtajom": 3173,
      "Ġparlament": 3174,
      "rnu": 3175,
      "Ġcykli": 3176,
      "Ġturna": 3177,
      "tenie": 3178,
      "Ġjuz": 3179,
      "Ġzeme": 3180,
      "Ġrich": 3181,
      "rian": 3182,
      "stavu": 3183,
      "Ġsrd": 3184,
      "mos": 3185,
      "pic": 3186,
      "Ġvc": 3187,
      "nske": 3188,
      "Ġsvetovy": 3189,
      "yzi": 3190,
      "Ġbratislavsky": 3191,
      "Ġkriti": 3192,
      "Ġcestuju": 3193,
      "mat": 3194,
      "Ġdiplom": 3195,
      "loveka": 3196,
      "Ġrus": 3197,
      "Ġvyvola": 3198,
      "Ġspotrebi": 3199,
      "vnejs": 3200,
      "Ġmajetku": 3201,
      "vane": 3202,
      "Ġprin": 3203,
      "gale": 3204,
      "Ġslovan": 3205,
      "Ġdenne": 3206,
      "Ġolympi": 3207,
      "ctvo": 3208,
      "stvom": 3209,
      "vac": 3210,
      "Ġtaku": 3211,
      "Ġaktu": 3212,
      "Ġpravidla": 3213,
      "Ġtex": 3214,
      "tmi": 3215,
      "vel": 3216,
      "mave": 3217,
      "Ġkonf": 3218,
      "Ġsvetovej": 3219,
      "Ġnegati": 3220,
      "kono": 3221,
      "Ġkomisia": 3222,
      "Ġporiadne": 3223,
      "Ġinvestic": 3224,
      "tevni": 3225,
      "Ġgas": 3226,
      "Ġzloc": 3227,
      "Ġpresu": 3228,
      "Ġcelej": 3229,
      "gna": 3230,
      "Ġrozhovo": 3231,
      "Ġnovom": 3232,
      "vody": 3233,
      "Ġokoli": 3234,
      "Ġfotogale": 3235,
      "Ġfinancov": 3236,
      "Ġuby": 3237,
      "Ġdoprav": 3238,
      "Ġkomo": 3239,
      "Ġprena": 3240,
      "Ġspokoj": 3241,
      "rio": 3242,
      "Ġvysoke": 3243,
      "ler": 3244,
      "Ġhnu": 3245,
      "lus": 3246,
      "Ġposlanec": 3247,
      "Ġnepria": 3248,
      "robu": 3249,
      "Ġsmrt": 3250,
      "Ġosn": 3251,
      "Ġhr": 3252,
      "Ġtym": 3253,
      "sledku": 3254,
      "Ġpravdu": 3255,
      "Ġneod": 3256,
      "pskych": 3257,
      "Ġzda": 3258,
      "Ġrebri": 3259,
      "Ġilustrac": 3260,
      "erv": 3261,
      "Ġnemecky": 3262,
      "roval": 3263,
      "Ġstarostli": 3264,
      "Ġnoci": 3265,
      "Ġfyzi": 3266,
      "Ġsvetove": 3267,
      "lene": 3268,
      "Ġzaka": 3269,
      "Ġpocit": 3270,
      "Ġalbu": 3271,
      "Ġklasi": 3272,
      "kony": 3273,
      "poji": 3274,
      "slati": 3275,
      "Ġlietadla": 3276,
      "Ġdus": 3277,
      "Ġvysoko": 3278,
      "ici": 3279,
      "luje": 3280,
      "Ġnesu": 3281,
      "Ġnebola": 3282,
      "Ġparlamente": 3283,
      "Ġkilometrov": 3284,
      "ac": 3285,
      "Ġbudov": 3286,
      "Ġkritiz": 3287,
      "Ġsvojim": 3288,
      "Ġzava": 3289,
      "Ġholand": 3290,
      "Ġtatra": 3291,
      "Ġodoberat": 3292,
      "Ġklubu": 3293,
      "aleko": 3294,
      "Ġpekne": 3295,
      "Ġlegislati": 3296,
      "Ġzvi": 3297,
      "Ġzmenu": 3298,
      "timi": 3299,
      "Ġizrael": 3300,
      "Ġukraji": 3301,
      "Ġpripom": 3302,
      "Ġklub": 3303,
      "pat": 3304,
      "Ġforma": 3305,
      "jedno": 3306,
      "niz": 3307,
      "Ġevi": 3308,
      "stane": 3309,
      "minist": 3310,
      "Ġtohtoroc": 3311,
      "Ġsami": 3312,
      "Ġostatne": 3313,
      "Ġsmeru": 3314,
      "itatel": 3315,
      "Ġvin": 3316,
      "Ġmusel": 3317,
      "han": 3318,
      "Ġbul": 3319,
      "pase": 3320,
      "Ġsever": 3321,
      "traj": 3322,
      "Ġnavr": 3323,
      "lni": 3324,
      "Ġnieco": 3325,
      "Ġcelom": 3326,
      "Ġvyd": 3327,
      "cep": 3328,
      "ori": 3329,
      "Ġdov": 3330,
      "Ġprev": 3331,
      "Ġist": 3332,
      "Ġtoma": 3333,
      "Ġhasic": 3334,
      "Ġopozic": 3335,
      "itost": 3336,
      "dnom": 3337,
      "Ġteni": 3338,
      "luc": 3339,
      "mes": 3340,
      "Ġhar": 3341,
      "Ġkapaci": 3342,
      "Ġgy": 3343,
      "Ġfunkcie": 3344,
      "des": 3345,
      "Ġobnov": 3346,
      "Ġzdrojov": 3347,
      "sali": 3348,
      "ik": 3349,
      "Ġkam": 3350,
      "pnu": 3351,
      "Ġsiete": 3352,
      "kry": 3353,
      "Ġcudz": 3354,
      "sme": 3355,
      "Ġobha": 3356,
      "tandar": 3357,
      "Ġvola": 3358,
      "Ġvplyv": 3359,
      "kach": 3360,
      "enky": 3361,
      "Ġnepodpo": 3362,
      "Ġsagan": 3363,
      "iro": 3364,
      "psky": 3365,
      "Ġzbytoc": 3366,
      "padu": 3367,
      "Ġinvest": 3368,
      "Ġhudob": 3369,
      "Ġpopula": 3370,
      "Ġseria": 3371,
      "lega": 3372,
      "Ġpolitiky": 3373,
      "Ġstanovi": 3374,
      "Ġukrajine": 3375,
      "socia": 3376,
      "vrhu": 3377,
      "Ġoblast": 3378,
      "raju": 3379,
      "Ġhovorkyn": 3380,
      "Ġzmena": 3381,
      "Ġprina": 3382,
      "Ġbod": 3383,
      "seni": 3384,
      "Ġslovenski": 3385,
      "Ġfondu": 3386,
      "chova": 3387,
      "Ġnada": 3388,
      "Ġprivatiza": 3389,
      "skala": 3390,
      "dzi": 3391,
      "rgie": 3392,
      "Ġuzavre": 3393,
      "veru": 3394,
      "Ġobeti": 3395,
      "sona": 3396,
      "Ġpapie": 3397,
      "rsku": 3398,
      "Ġvytva": 3399,
      "covy": 3400,
      "bna": 3401,
      "Ġhry": 3402,
      "stich": 3403,
      "stoj": 3404,
      "Ġnasa": 3405,
      "Ġokam": 3406,
      "Ġhrat": 3407,
      "regist": 3408,
      "Ġobjek": 3409,
      "pitel": 3410,
      "Ġrokovani": 3411,
      "Ġskra": 3412,
      "Ġseku": 3413,
      "Ġzariadenia": 3414,
      "Ġsen": 3415,
      "Ġprotest": 3416,
      "Ġvyhral": 3417,
      "Ġpriebehu": 3418,
      "Ġzdro": 3419,
      "Ġargu": 3420,
      "Ġtan": 3421,
      "Ġzaznamen": 3422,
      "mani": 3423,
      "uro": 3424,
      "Ġnee": 3425,
      "Ġhd": 3426,
      "akti": 3427,
      "mb": 3428,
      "Ġvyna": 3429,
      "vej": 3430,
      "cri": 3431,
      "mit": 3432,
      "Ġprostredia": 3433,
      "Ġnaz": 3434,
      "sledkom": 3435,
      "Ġzdola": 3436,
      "xua": 3437,
      "Ġmon": 3438,
      "zer": 3439,
      "Ġhi": 3440,
      "iadny": 3441,
      "Ġspis": 3442,
      "Ġzabra": 3443,
      "Ġpredme": 3444,
      "Ġsmrti": 3445,
      "eska": 3446,
      "Ġnasleduju": 3447,
      "ari": 3448,
      "Ġbel": 3449,
      "Ġstary": 3450,
      "stiev": 3451,
      "pravy": 3452,
      "Ġsrb": 3453,
      "Ġrobia": 3454,
      "Ġbur": 3455,
      "Ġstars": 3456,
      "stia": 3457,
      "Ġstredo": 3458,
      "Ġupozorn": 3459,
      "Ġrad": 3460,
      "Ġobz": 3461,
      "hnutel": 3462,
      "kru": 3463,
      "Ġspre": 3464,
      "Ġplne": 3465,
      "Ġkrok": 3466,
      "Ġpes": 3467,
      "Ġpredaja": 3468,
      "esko": 3469,
      "Ġviem": 3470,
      "bnej": 3471,
      "Ġih": 3472,
      "lohu": 3473,
      "Ġche": 3474,
      "Ġspol": 3475,
      "Ġjuho": 3476,
      "Ġpomoci": 3477,
      "Ġbal": 3478,
      "Ġano": 3479,
      "mys": 3480,
      "Ġprogramu": 3481,
      "Ġpoda": 3482,
      "Ġkiska": 3483,
      "nilo": 3484,
      "Ġgran": 3485,
      "Ġdali": 3486,
      "Ġrusi": 3487,
      "razil": 3488,
      "broj": 3489,
      "maticky": 3490,
      "Ġlegen": 3491,
      "ranie": 3492,
      "Ġreprezent": 3493,
      "Ġvzdu": 3494,
      "Ġolympij": 3495,
      "Ġvozidla": 3496,
      "Ġmimoriadne": 3497,
      "toleran": 3498,
      "Ġregiona": 3499,
      "eleznic": 3500,
      "Ġsily": 3501,
      "Ġobl": 3502,
      "cript": 3503,
      "siona": 3504,
      "Ġjavas": 3505,
      "gicky": 3506,
      "Ġkolo": 3507,
      "Ġdosiahol": 3508,
      "Ġdesiatky": 3509,
      "Ġjavascript": 3510,
      "lina": 3511,
      "Ġhol": 3512,
      "Ġdostatoc": 3513,
      "Ġyor": 3514,
      "Ġsilne": 3515,
      "Ġtakze": 3516,
      "Ġvni": 3517,
      "Ġpracuje": 3518,
      "jdu": 3519,
      "roslav": 3520,
      "Ġdlhs": 3521,
      "Ġceste": 3522,
      "ach": 3523,
      "os": 3524,
      "Ġjednotlivy": 3525,
      "Ġindi": 3526,
      "Ġsied": 3527,
      "covi": 3528,
      "Ġtrium": 3529,
      "peni": 3530,
      "Ġture": 3531,
      "bc": 3532,
      "gia": 3533,
      "Ġspravodaj": 3534,
      "Ġpolitici": 3535,
      "rovol": 3536,
      "Ġvedia": 3537,
      "tnom": 3538,
      "Ġpreco": 3539,
      "Ġwe": 3540,
      "Ġjan": 3541,
      "Ġvply": 3542,
      "Ġoddel": 3543,
      "kovanie": 3544,
      "Ġobchodov": 3545,
      "Ġspojene": 3546,
      "Ġspotrebitel": 3547,
      "ickej": 3548,
      "senosti": 3549,
      "Ġuvedom": 3550,
      "Ġdota": 3551,
      "Ġkurz": 3552,
      "Ġdemons": 3553,
      "Ġmoc": 3554,
      "verov": 3555,
      "Ġhodnoty": 3556,
      "sh": 3557,
      "Ġjedine": 3558,
      "dez": 3559,
      "Ġtrend": 3560,
      "Ġprepa": 3561,
      "Ġpor": 3562,
      "Ġii": 3563,
      "am": 3564,
      "Ġisty": 3565,
      "Ġformula": 3566,
      "Ġpodie": 3567,
      "Ġintoleran": 3568,
      "lesti": 3569,
      "vere": 3570,
      "leni": 3571,
      "Ġmoti": 3572,
      "Ġnapl": 3573,
      "nami": 3574,
      "arskej": 3575,
      "stavby": 3576,
      "Ġkomisie": 3577,
      "prv": 3578,
      "Ġturec": 3579,
      "chop": 3580,
      "Ġneuve": 3581,
      "Ġpani": 3582,
      "Ġpetrz": 3583,
      "Ġsro": 3584,
      "ster": 3585,
      "Ġuspo": 3586,
      "Ġfas": 3587,
      "Ġmosli": 3588,
      "Ġdruha": 3589,
      "Ġkrest": 3590,
      "naju": 3591,
      "ral": 3592,
      "Ġvody": 3593,
      "Ġpotencia": 3594,
      "Ġcharak": 3595,
      "Ġkva": 3596,
      "solu": 3597,
      "kel": 3598,
      "Ġzmie": 3599,
      "Ġnajnov": 3600,
      "Ġpal": 3601,
      "Ġrec": 3602,
      "Ġamerickej": 3603,
      "enom": 3604,
      "Ġnehnutel": 3605,
      "dav": 3606,
      "Ġisto": 3607,
      "Ġobje": 3608,
      "Ġstane": 3609,
      "Ġdefi": 3610,
      "Ġhava": 3611,
      "Ġtis": 3612,
      "Ġpit": 3613,
      "Ġtop": 3614,
      "Ġefekti": 3615,
      "sila": 3616,
      "Ġcentre": 3617,
      "Ġzahra": 3618,
      "Ġobjem": 3619,
      "Ġwebnovinyska": 3620,
      "Ġodohra": 3621,
      "Ġokamz": 3622,
      "Ġvl": 3623,
      "kuju": 3624,
      "Ġobce": 3625,
      "Ġvojakov": 3626,
      "hlia": 3627,
      "zovat": 3628,
      "Ġsilny": 3629,
      "Ġkamp": 3630,
      "Ġpercen": 3631,
      "pisov": 3632,
      "Ġzuz": 3633,
      "Ġkonfli": 3634,
      "jme": 3635,
      "Ġzre": 3636,
      "menie": 3637,
      "Ġnajprv": 3638,
      "Ġosoby": 3639,
      "Ġzmluvu": 3640,
      "Ġabsolu": 3641,
      "cat": 3642,
      "Ġmaria": 3643,
      "spevky": 3644,
      "Ġdosiahnut": 3645,
      "Ġintolerancie": 3646,
      "Ġsed": 3647,
      "gov": 3648,
      "Ġren": 3649,
      "Ġkoniec": 3650,
      "Ġjozef": 3651,
      "Ġekonomicky": 3652,
      "Ġrozhodla": 3653,
      "Ġporta": 3654,
      "Ġrezort": 3655,
      "Ġdzu": 3656,
      "Ġnespo": 3657,
      "Ġmoje": 3658,
      "rneho": 3659,
      "Ġdej": 3660,
      "kolstva": 3661,
      "vodny": 3662,
      "stavy": 3663,
      "Ġakciona": 3664,
      "Ġbranka": 3665,
      "Ġhud": 3666,
      "Ġzvie": 3667,
      "Ġutr": 3668,
      "ovanej": 3669,
      "chlejs": 3670,
      "Ġpoliticke": 3671,
      "kcii": 3672,
      "lergie": 3673,
      "sobil": 3674,
      "Ġporiadku": 3675,
      "Ġwebnovinyskalergie": 3676,
      "jmov": 3677,
      "Ġocho": 3678,
      "rilo": 3679,
      "eli": 3680,
      "Ġdopy": 3681,
      "Ġchod": 3682,
      "Ġopak": 3683,
      "Ġpracovat": 3684,
      "Ġvyrovna": 3685,
      "nim": 3686,
      "arske": 3687,
      "Ġrodina": 3688,
      "Ġnajnovs": 3689,
      "jmy": 3690,
      "Ġdispozi": 3691,
      "taura": 3692,
      "Ġskupi": 3693,
      "Ġznic": 3694,
      "mara": 3695,
      "Ġdruhu": 3696,
      "Ġalter": 3697,
      "Ġpiatich": 3698,
      "rodna": 3699,
      "Ġproces": 3700,
      "hs": 3701,
      "Ġsmers": 3702,
      "Ġaktualiz": 3703,
      "Ġposkytnu": 3704,
      "Ġneob": 3705,
      "Ġunika": 3706,
      "Ġrobo": 3707,
      "Ġfer": 3708,
      "ktor": 3709,
      "ash": 3710,
      "tovania": 3711,
      "Ġjura": 3712,
      "Ġzachra": 3713,
      "dena": 3714,
      "Ġnajho": 3715,
      "Ġkonci": 3716,
      "gii": 3717,
      "Ġpredstavitelia": 3718,
      "mbo": 3719,
      "Ġpodozri": 3720,
      "Ġpredsedni": 3721,
      "Ġmne": 3722,
      "Ġcar": 3723,
      "astie": 3724,
      "Ġbratislavske": 3725,
      "rskych": 3726,
      "Ġverejnosti": 3727,
      "diu": 3728,
      "Ġsklad": 3729,
      "Ġhors": 3730,
      "Ġvojny": 3731,
      "Ġporovna": 3732,
      "Ġzmenit": 3733,
      "Ġpravide": 3734,
      "chyb": 3735,
      "Ġsmersd": 3736,
      "Ġslovakia": 3737,
      "Ġvoda": 3738,
      "Ġpokoj": 3739,
      "zahranic": 3740,
      "Ġavs": 3741,
      "Ġosu": 3742,
      "kole": 3743,
      "Ġzasta": 3744,
      "ujeme": 3745,
      "sna": 3746,
      "Ġspri": 3747,
      "Ġspojeny": 3748,
      "Ġpotrav": 3749,
      "Ġamericka": 3750,
      "tef": 3751,
      "net": 3752,
      "inov": 3753,
      "Ġpreu": 3754,
      "Ġklientov": 3755,
      "tatoval": 3756,
      "Ġpripomenu": 3757,
      "Ġhdp": 3758,
      "Ġmes": 3759,
      "Ġpotvr": 3760,
      "cki": 3761,
      "mesti": 3762,
      "enstva": 3763,
      "zvom": 3764,
      "Ġskoro": 3765,
      "Ġmesiace": 3766,
      "cent": 3767,
      "nda": 3768,
      "Ġpodniku": 3769,
      "tickej": 3770,
      "Ġzdravotne": 3771,
      "Ġcibul": 3772,
      "covat": 3773,
      "ciami": 3774,
      "Ġobet": 3775,
      "Ġrovnaky": 3776,
      "Ġasist": 3777,
      "Ġalternati": 3778,
      "romaz": 3779,
      "Ġrumu": 3780,
      "Ġdefini": 3781,
      "Ġpetra": 3782,
      "logicky": 3783,
      "Ġvylu": 3784,
      "Ġstranu": 3785,
      "Ġmozno": 3786,
      "Ġjednoznac": 3787,
      "Ġmnohi": 3788,
      "utor": 3789,
      "Ġobrany": 3790,
      "iem": 3791,
      "Ġchysta": 3792,
      "Ġligy": 3793,
      "Ġmnoho": 3794,
      "Ġgloba": 3795,
      "Ġvsetky": 3796,
      "Ġdiploma": 3797,
      "skali": 3798,
      "Ġprvu": 3799,
      "Ġodkaz": 3800,
      "Ġfirme": 3801,
      "Ġpolo": 3802,
      "jat": 3803,
      "azstvo": 3804,
      "Ġprezra": 3805,
      "Ġprokuratu": 3806,
      "Ġfrantis": 3807,
      "Ġovplyv": 3808,
      "ahy": 3809,
      "Ġokol": 3810,
      "stol": 3811,
      "Ġmetro": 3812,
      "tke": 3813,
      "vetli": 3814,
      "Ġdoterajs": 3815,
      "Ġzhromaz": 3816,
      "gani": 3817,
      "lovat": 3818,
      "Ġvycha": 3819,
      "soch": 3820,
      "Ġnezo": 3821,
      "Ġodva": 3822,
      "Ġdobrovol": 3823,
      "Ġdzurin": 3824,
      "Ġupra": 3825,
      "Ġpodobny": 3826,
      "Ġboji": 3827,
      "Ġpoza": 3828,
      "kal": 3829,
      "polu": 3830,
      "Ġnajsko": 3831,
      "Ġnr": 3832,
      "Ġosa": 3833,
      "dle": 3834,
      "Ġavi": 3835,
      "Ġandrej": 3836,
      "Ġotec": 3837,
      "dnych": 3838,
      "Ġtych": 3839,
      "hna": 3840,
      "Ġvelmi": 3841,
      "Ġzem": 3842,
      "darmo": 3843,
      "Ġosobny": 3844,
      "Ġodstra": 3845,
      "Ġvediet": 3846,
      "Ġslus": 3847,
      "nenia": 3848,
      "Ġpreve": 3849,
      "kovic": 3850,
      "pustil": 3851,
      "rb": 3852,
      "Ġvyries": 3853,
      "Ġpracovne": 3854,
      "Ġvrcho": 3855,
      "dajov": 3856,
      "tus": 3857,
      "Ġstia": 3858,
      "chodom": 3859,
      "hn": 3860,
      "Ġstovky": 3861,
      "Ġverejnost": 3862,
      "Ġdanie": 3863,
      "Ġbytov": 3864,
      "Ġrie": 3865,
      "Ġuzna": 3866,
      "Ġdala": 3867,
      "Ġpriec": 3868,
      "Ġsvojou": 3869,
      "Ġpatria": 3870,
      "Ġdohody": 3871,
      "Ġuplat": 3872,
      "dri": 3873,
      "dzuje": 3874,
      "Ġobchodny": 3875,
      "Ġkonto": 3876,
      "Ġdodrz": 3877,
      "Ġobchodne": 3878,
      "Ġcelkove": 3879,
      "kend": 3880,
      "Ġrokom": 3881,
      "Ġpropa": 3882,
      "zuje": 3883,
      "Ġbudem": 3884,
      "Ġsamosta": 3885,
      "Ġnemecko": 3886,
      "ise": 3887,
      "Ġnastu": 3888,
      "lovi": 3889,
      "Ġair": 3890,
      "Ġmila": 3891,
      "Ġbrazi": 3892,
      "lenom": 3893,
      "astejs": 3894,
      "nera": 3895,
      "Ġakci": 3896,
      "oraz": 3897,
      "Ġdph": 3898,
      "Ġig": 3899,
      "chrana": 3900,
      "Ġchceme": 3901,
      "sledkov": 3902,
      "Ġdanko": 3903,
      "Ġmater": 3904,
      "teni": 3905,
      "Ġpil": 3906,
      "mar": 3907,
      "Ġsam": 3908,
      "Ġhranice": 3909,
      "Ġdosiahla": 3910,
      "mke": 3911,
      "Ġkoho": 3912,
      "Ġjednom": 3913,
      "Ġfedera": 3914,
      "euro": 3915,
      "pen": 3916,
      "iadal": 3917,
      "Ġprehl": 3918,
      "Ġvsetko": 3919,
      "Ġded": 3920,
      "beh": 3921,
      "Ġresp": 3922,
      "nsku": 3923,
      "rozu": 3924,
      "Ġina": 3925,
      "predse": 3926,
      "Ġreakcie": 3927,
      "Ġdiskusiu": 3928,
      "cs": 3929,
      "gh": 3930,
      "siela": 3931,
      "Ġrozhodnutia": 3932,
      "vrat": 3933,
      "Ġchor": 3934,
      "lizmu": 3935,
      "kladom": 3936,
      "Ġzodpovednost": 3937,
      "Ġhold": 3938,
      "Ġvlan": 3939,
      "Ġvan": 3940,
      "Ġreda": 3941,
      "Ġnem": 3942,
      "nany": 3943,
      "Ġhovorit": 3944,
      "Ġvysvetl": 3945,
      "Ġzist": 3946,
      "byt": 3947,
      "lenovia": 3948,
      "portov": 3949,
      "nskom": 3950,
      "Ġvu": 3951,
      "Ġucha": 3952,
      "Ġdosah": 3953,
      "Ġzranenia": 3954,
      "Ġvyho": 3955,
      "Ġrake": 3956,
      "Ġcom": 3957,
      "Ġlikvi": 3958,
      "Ġmierne": 3959,
      "hre": 3960,
      "Ġpriji": 3961,
      "Ġbritsky": 3962,
      "Ġboju": 3963,
      "Ġzapa": 3964,
      "plika": 3965,
      "chodu": 3966,
      "Ġsmk": 3967,
      "Ġaktualizovane": 3968,
      "Ġzamera": 3969,
      "Ġdokonc": 3970,
      "Ġozbroj": 3971,
      "komunika": 3972,
      "cnost": 3973,
      "rik": 3974,
      "daje": 3975,
      "Ġochor": 3976,
      "Ġbas": 3977,
      "Ġvypra": 3978,
      "Ġobama": 3979,
      "Ġmik": 3980,
      "Ġzariadeni": 3981,
      "iam": 3982,
      "Ġlietadlo": 3983,
      "Ġvypla": 3984,
      "rovic": 3985,
      "boz": 3986,
      "eske": 3987,
      "Ġsce": 3988,
      "Ġul": 3989,
      "Ġrozhodli": 3990,
      "Ġzdroje": 3991,
      "tadio": 3992,
      "hali": 3993,
      "brez": 3994,
      "chran": 3995,
      "roba": 3996,
      "raznil": 3997,
      "novej": 3998,
      "Ġwil": 3999,
      "giu": 4000,
      "Ġreprezentan": 4001,
      "stroj": 4002,
      "Ġtest": 4003,
      "Ġpolitikov": 4004,
      "Ġpubli": 4005,
      "Ġnajhors": 4006,
      "Ġnaria": 4007,
      "Ġol": 4008,
      "Ġzadarmo": 4009,
      "Ġmuse": 4010,
      "Ġdome": 4011,
      "Ġvyjadril": 4012,
      "pske": 4013,
      "nohospoda": 4014,
      "Ġpokle": 4015,
      "Ġprehliadac": 4016,
      "slava": 4017,
      "stavbu": 4018,
      "vame": 4019,
      "Ġspro": 4020,
      "itejs": 4021,
      "Ġfond": 4022,
      "cite": 4023,
      "Ġstrel": 4024,
      "Ġkazdy": 4025,
      "Ġhypo": 4026,
      "kne": 4027,
      "iari": 4028,
      "dam": 4029,
      "Ġtrage": 4030,
      "Ġpenzi": 4031,
      "Ġdohodu": 4032,
      "Ġdvoma": 4033,
      "arsko": 4034,
      "Ġpoved": 4035,
      "Ġnepodporuje": 4036,
      "Ġhodiny": 4037,
      "Ġzneuz": 4038,
      "Ġobsta": 4039,
      "Ġnemocni": 4040,
      "Ġnac": 4041,
      "Ġbil": 4042,
      "Ġobjedna": 4043,
      "Ġhovoria": 4044,
      "pustili": 4045,
      "Ġom": 4046,
      "Ġponuky": 4047,
      "Ġinternet": 4048,
      "ashing": 4049,
      "Ġopen": 4050,
      "enske": 4051,
      "pravu": 4052,
      "Ġminulom": 4053,
      "Ġnemocnici": 4054,
      "Ġstrednej": 4055,
      "Ġzomre": 4056,
      "Ġsubjek": 4057,
      "Ġgaz": 4058,
      "Ġasocia": 4059,
      "Ġjar": 4060,
      "Ġpolovici": 4061,
      "Ġrovnake": 4062,
      "pustit": 4063,
      "Ġradic": 4064,
      "ras": 4065,
      "chom": 4066,
      "Ġvysvetli": 4067,
      "Ġpovinnost": 4068,
      "Ġarchi": 4069,
      "bla": 4070,
      "Ġdz": 4071,
      "Ġmikula": 4072,
      "tvy": 4073,
      "dnes": 4074,
      "mysli": 4075,
      "Ġobran": 4076,
      "Ġokrese": 4077,
      "Ġpavol": 4078,
      "Ġpohyb": 4079,
      "zerat": 4080,
      "Ġdivi": 4081,
      "vest": 4082,
      "Ġhosti": 4083,
      "og": 4084,
      "jmu": 4085,
      "Ġohl": 4086,
      "Ġhodnote": 4087,
      "chva": 4088,
      "Ġange": 4089,
      "Ġangli": 4090,
      "xist": 4091,
      "Ġnejde": 4092,
      "stky": 4093,
      "adiska": 4094,
      "Ġverejnej": 4095,
      "pne": 4096,
      "Ġpoloz": 4097,
      "Ġvytvorit": 4098,
      "nostne": 4099,
      "Ġcentrum": 4100,
      "Ġmzdy": 4101,
      "dr": 4102,
      "Ġodmieta": 4103,
      "mere": 4104,
      "Ġexper": 4105,
      "Ġalkoho": 4106,
      "Ġprocha": 4107,
      "Ġprov": 4108,
      "Ġpredc": 4109,
      "Ġlips": 4110,
      "tiez": 4111,
      "Ġfotografie": 4112,
      "Ġvypa": 4113,
      "tul": 4114,
      "Ġdlhy": 4115,
      "bali": 4116,
      "Ġruka": 4117,
      "Ġzlom": 4118,
      "teny": 4119,
      "mila": 4120,
      "Ġinformac": 4121,
      "moch": 4122,
      "vnym": 4123,
      "cept": 4124,
      "esku": 4125,
      "Ġpocha": 4126,
      "kladnej": 4127,
      "ovaci": 4128,
      "Ġviacero": 4129,
      "Ġchorva": 4130,
      "Ġmeda": 4131,
      "Ġobyc": 4132,
      "znu": 4133,
      "Ġanti": 4134,
      "Ġzaslu": 4135,
      "Ġuvi": 4136,
      "nym": 4137,
      "Ġodpoved": 4138,
      "Ġlavi": 4139,
      "ckou": 4140,
      "teri": 4141,
      "Ġmeto": 4142,
      "ovou": 4143,
      "Ġbuga": 4144,
      "Ġdeakti": 4145,
      "Ġkontra": 4146,
      "Ġpozo": 4147,
      "Ġuplne": 4148,
      "Ġprida": 4149,
      "niky": 4150,
      "Ġsymbo": 4151,
      "Ġhmo": 4152,
      "Ġdlhe": 4153,
      "Ġstretnutie": 4154,
      "Ġpracuju": 4155,
      "nne": 4156,
      "Ġodstu": 4157,
      "Ġexistuju": 4158,
      "Ġtaktiez": 4159,
      "Ġdostanu": 4160,
      "Ġnara": 4161,
      "Ġpodpredse": 4162,
      "Ġmestskej": 4163,
      "Ġprekona": 4164,
      "Ġtesne": 4165,
      "Ġhlavy": 4166,
      "fil": 4167,
      "Ġopi": 4168,
      "Ġpresta": 4169,
      "Ġradost": 4170,
      "Ġsvojimi": 4171,
      "sobit": 4172,
      "Ġprofesiona": 4173,
      "Ġzria": 4174,
      "chodnej": 4175,
      "leny": 4176,
      "loch": 4177,
      "Ġpredstavit": 4178,
      "tenzi": 4179,
      "Ġobjavili": 4180,
      "ls": 4181,
      "pskeho": 4182,
      "dosti": 4183,
      "Ġtvrdia": 4184,
      "Ġnomina": 4185,
      "Ġmichal": 4186,
      "Ġbenzi": 4187,
      "stvu": 4188,
      "Ġbohu": 4189,
      "Ġdeaktivovat": 4190,
      "sala": 4191,
      "Ġstabi": 4192,
      "Ġpotreb": 4193,
      "pan": 4194,
      "Ġneexist": 4195,
      "Ġnen": 4196,
      "Ġprostriedkov": 4197,
      "Ġodis": 4198,
      "Ġpolovicu": 4199,
      "Ġaktivity": 4200,
      "Ġohla": 4201,
      "lig": 4202,
      "Ġchcem": 4203,
      "Ġobo": 4204,
      "Ġmotor": 4205,
      "Ġfunguje": 4206,
      "Ġbrus": 4207,
      "novi": 4208,
      "ters": 4209,
      "kle": 4210,
      "Ġzru": 4211,
      "vilo": 4212,
      "Ġtelo": 4213,
      "Ġrezortu": 4214,
      "dsia": 4215,
      "Ġjesen": 4216,
      "Ġcela": 4217,
      "Ġrozum": 4218,
      "Ġprebie": 4219,
      "Ġeli": 4220,
      "Ġniekde": 4221,
      "slovensko": 4222,
      "davky": 4223,
      "dilo": 4224,
      "dc": 4225,
      "Ġprostriedky": 4226,
      "Ġkabi": 4227,
      "Ġstretnutia": 4228,
      "Ġpodstatne": 4229,
      "Ġmna": 4230,
      "Ġnajvy": 4231,
      "lena": 4232,
      "tene": 4233,
      "noch": 4234,
      "padov": 4235,
      "Ġvybav": 4236,
      "sni": 4237,
      "pasu": 4238,
      "Ġcelos": 4239,
      "Ġhodnota": 4240,
      "Ġsest": 4241,
      "Ġvedie": 4242,
      "Ġpolicajtov": 4243,
      "Ġnaznac": 4244,
      "kul": 4245,
      "Ġkontrolu": 4246,
      "Ġdefiniti": 4247,
      "Ġgar": 4248,
      "Ġurobil": 4249,
      "snu": 4250,
      "radni": 4251,
      "Ġsama": 4252,
      "Ġsum": 4253,
      "Ġafri": 4254,
      "Ġmigrantov": 4255,
      "Ġbila": 4256,
      "toli": 4257,
      "Ġcelkovy": 4258,
      "Ġpilo": 4259,
      "ur": 4260,
      "Ġvyt": 4261,
      "lovu": 4262,
      "bis": 4263,
      "Ġmh": 4264,
      "Ġtyp": 4265,
      "Ġtelekomunika": 4266,
      "rskeho": 4267,
      "Ġschu": 4268,
      "Ġona": 4269,
      "Ġpriori": 4270,
      "Ġfunkcii": 4271,
      "tkom": 4272,
      "Ġalex": 4273,
      "Ġpolitika": 4274,
      "Ġzhors": 4275,
      "vid": 4276,
      "padoch": 4277,
      "Ġekonomika": 4278,
      "ampiona": 4279,
      "Ġznovu": 4280,
      "rnej": 4281,
      "Ġhoru": 4282,
      "prava": 4283,
      "Ġtretie": 4284,
      "ovsky": 4285,
      "las": 4286,
      "Ġdostup": 4287,
      "Ġpomocou": 4288,
      "ris": 4289,
      "Ġstrom": 4290,
      "Ġluxu": 4291,
      "Ġobavy": 4292,
      "lensky": 4293,
      "Ġhodnotu": 4294,
      "movy": 4295,
      "beru": 4296,
      "Ġmajetok": 4297,
      "ovana": 4298,
      "roky": 4299,
      "parovic": 4300,
      "akaju": 4301,
      "Ġpripravuje": 4302,
      "olo": 4303,
      "Ġpravidelne": 4304,
      "cova": 4305,
      "Ġtv": 4306,
      "vode": 4307,
      "pely": 4308,
      "Ġinvestorov": 4309,
      "nskeho": 4310,
      "mok": 4311,
      "myslu": 4312,
      "Ġmysle": 4313,
      "Ġinfla": 4314,
      "Ġkonzu": 4315,
      "Ġpobo": 4316,
      "Ġsieti": 4317,
      "Ġtriumf": 4318,
      "ensky": 4319,
      "Ġzav": 4320,
      "kri": 4321,
      "Ġkomb": 4322,
      "Ġzvol": 4323,
      "Ġbank": 4324,
      "stred": 4325,
      "mpia": 4326,
      "Ġobec": 4327,
      "Ġdr": 4328,
      "Ġnaf": 4329,
      "Ġzarobi": 4330,
      "Ġnemecke": 4331,
      "lade": 4332,
      "Ġzame": 4333,
      "Ġnetre": 4334,
      "Ġprak": 4335,
      "Ġdruz": 4336,
      "Ġzelen": 4337,
      "lovany": 4338,
      "Ġgi": 4339,
      "oho": 4340,
      "Ġzah": 4341,
      "Ġneroz": 4342,
      "Ġtypu": 4343,
      "Ġvysiela": 4344,
      "Ġvieme": 4345,
      "Ġciga": 4346,
      "hodou": 4347,
      "Ġkamara": 4348,
      "Ġtur": 4349,
      "Ġjednou": 4350,
      "Ġuvaz": 4351,
      "ctve": 4352,
      "mami": 4353,
      "govia": 4354,
      "Ġdohodnu": 4355,
      "gal": 4356,
      "mna": 4357,
      "stami": 4358,
      "iv": 4359,
      "Ġzl": 4360,
      "nostny": 4361,
      "Ġzivo": 4362,
      "Ġenergie": 4363,
      "dro": 4364,
      "Ġwashing": 4365,
      "Ġnevedia": 4366,
      "Ġtrhy": 4367,
      "Ġvolks": 4368,
      "Ġvyzval": 4369,
      "visi": 4370,
      "Ġkoalic": 4371,
      "Ġobyvatelia": 4372,
      "verec": 4373,
      "Ġdevi": 4374,
      "udsky": 4375,
      "enka": 4376,
      "Ġvolit": 4377,
      "ckych": 4378,
      "Ġruskej": 4379,
      "stavny": 4380,
      "iaci": 4381,
      "hodny": 4382,
      "Ġpriro": 4383,
      "gel": 4384,
      "kr": 4385,
      "Ġska": 4386,
      "Ġzavie": 4387,
      "Ġnezi": 4388,
      "menta": 4389,
      "Ġbliz": 4390,
      "Ġlibera": 4391,
      "Ġukrajiny": 4392,
      "stka": 4393,
      "Ġodmen": 4394,
      "Ġtakisto": 4395,
      "Ġuvol": 4396,
      "Ġmaj": 4397,
      "Ġnemoz": 4398,
      "Ġrozhoduju": 4399,
      "Ġhotely": 4400,
      "enci": 4401,
      "Ġpomerne": 4402,
      "Ġbudete": 4403,
      "Ġsneh": 4404,
      "ily": 4405,
      "iasto": 4406,
      "sahu": 4407,
      "Ġkomplex": 4408,
      "Ġneusta": 4409,
      "Ġpodujatia": 4410,
      "Ġbrat": 4411,
      "nena": 4412,
      "tam": 4413,
      "Ġnajkra": 4414,
      "Ġhypote": 4415,
      "rnych": 4416,
      "Ġdist": 4417,
      "Ġtune": 4418,
      "Ġbudovy": 4419,
      "Ġadre": 4420,
      "Ġexistuje": 4421,
      "Ġpredsta": 4422,
      "Ġvedeni": 4423,
      "Ġlokali": 4424,
      "Ġpersona": 4425,
      "Ġmari": 4426,
      "Ġiden": 4427,
      "mal": 4428,
      "Ġpala": 4429,
      "Ġhos": 4430,
      "bus": 4431,
      "Ġkonania": 4432,
      "Ġsoli": 4433,
      "Ġnesmie": 4434,
      "kovany": 4435,
      "Ġidu": 4436,
      "rovanie": 4437,
      "Ġvedom": 4438,
      "Ġmlie": 4439,
      "Ġprizn": 4440,
      "Ġprinci": 4441,
      "cipli": 4442,
      "Ġnim": 4443,
      "tina": 4444,
      "Ġfan": 4445,
      "Ġboja": 4446,
      "Ġprecha": 4447,
      "Ġsem": 4448,
      "Ġzaplati": 4449,
      "dlom": 4450,
      "Ġvypoc": 4451,
      "Ġvedenia": 4452,
      "Ġzaplatit": 4453,
      "Ġkanad": 4454,
      "sim": 4455,
      "Ġospra": 4456,
      "Ġvod": 4457,
      "erc": 4458,
      "Ġdaju": 4459,
      "dus": 4460,
      "Ġelektric": 4461,
      "Ġriziko": 4462,
      "kta": 4463,
      "dzali": 4464,
      "Ġnehovo": 4465,
      "fam": 4466,
      "nesie": 4467,
      "Ġkaro": 4468,
      "Ġtomuto": 4469,
      "Ġospraved": 4470,
      "Ġrozo": 4471,
      "Ġodmietol": 4472,
      "Ġekonomicke": 4473,
      "rch": 4474,
      "dane": 4475,
      "dobu": 4476,
      "Ġkonanie": 4477,
      "Ġokra": 4478,
      "Ġimi": 4479,
      "itie": 4480,
      "stickej": 4481,
      "dum": 4482,
      "Ġlicen": 4483,
      "Ġpozriet": 4484,
      "lku": 4485,
      "Ġhrd": 4486,
      "Ġegy": 4487,
      "Ġreu": 4488,
      "Ġzdravotny": 4489,
      "Ġsevero": 4490,
      "Ġpiat": 4491,
      "Ġotva": 4492,
      "Ġpriaz": 4493,
      "kody": 4494,
      "asom": 4495,
      "Ġpomaly": 4496,
      "Ġviacere": 4497,
      "registrovany": 4498,
      "Ġbodu": 4499,
      "Ġponuku": 4500,
      "Ġfutbal": 4501,
      "Ġprieskumu": 4502,
      "Ġniekoho": 4503,
      "Ġanglic": 4504,
      "Ġlist": 4505,
      "Ġinicia": 4506,
      "Ġrozdel": 4507,
      "zok": 4508,
      "Ġpoci": 4509,
      "Ġkomenta": 4510,
      "Ġindex": 4511,
      "Ġpodmienok": 4512,
      "Ġvolkswa": 4513,
      "menia": 4514,
      "Ġnespra": 4515,
      "ahu": 4516,
      "vke": 4517,
      "Ġhlavu": 4518,
      "Ġdistri": 4519,
      "valu": 4520,
      "tala": 4521,
      "Ġsporitel": 4522,
      "Ġtraja": 4523,
      "Ġcvic": 4524,
      "Ġsumu": 4525,
      "Ġhore": 4526,
      "Ġrepublika": 4527,
      "kanda": 4528,
      "Ġrezerva": 4529,
      "sich": 4530,
      "Ġteba": 4531,
      "hnuty": 4532,
      "truktura": 4533,
      "Ġtour": 4534,
      "eku": 4535,
      "Ġstavu": 4536,
      "Ġrozhodnuti": 4537,
      "Ġdlhodobo": 4538,
      "Ġlip": 4539,
      "Ġmarke": 4540,
      "Ġznova": 4541,
      "Ġpolitike": 4542,
      "Ġolympia": 4543,
      "Ġoce": 4544,
      "Ġbara": 4545,
      "Ġprojekty": 4546,
      "Ġkamen": 4547,
      "Ġkrite": 4548,
      "ivote": 4549,
      "Ġprakticky": 4550,
      "Ġarea": 4551,
      "tovu": 4552,
      "Ġkauze": 4553,
      "Ġpodnikov": 4554,
      "Ġclovek": 4555,
      "Ġprieskum": 4556,
      "Ġkampan": 4557,
      "Ġgaran": 4558,
      "Ġpsycho": 4559,
      "penia": 4560,
      "vaz": 4561,
      "vec": 4562,
      "Ġeva": 4563,
      "Ġrevo": 4564,
      "Ġagre": 4565,
      "Ġdistribu": 4566,
      "Ġpopri": 4567,
      "Ġnajc": 4568,
      "Ġlep": 4569,
      "Ġobstara": 4570,
      "Ġplaty": 4571,
      "Ġbic": 4572,
      "ovacie": 4573,
      "dnuti": 4574,
      "Ġprevaz": 4575,
      "Ġpodstate": 4576,
      "Ġzozna": 4577,
      "Ġvidel": 4578,
      "Ġsigna": 4579,
      "rena": 4580,
      "Ġneodo": 4581,
      "Ġvet": 4582,
      "Ġfarma": 4583,
      "Ġzlodej": 4584,
      "asie": 4585,
      "dre": 4586,
      "Ġkedysi": 4587,
      "Ġihri": 4588,
      "Ġlegenda": 4589,
      "vnou": 4590,
      "Ġpopre": 4591,
      "spekti": 4592,
      "Ġspravodlivosti": 4593,
      "mr": 4594,
      "Ġvyzy": 4595,
      "Ġstali": 4596,
      "Ġnepotre": 4597,
      "Ġdosiahli": 4598,
      "Ġkvalifika": 4599,
      "id": 4600,
      "pal": 4601,
      "Ġpalu": 4602,
      "Ġkrajinu": 4603,
      "Ġfutbali": 4604,
      "Ġtakej": 4605,
      "Ġholding": 4606,
      "Ġmam": 4607,
      "iastoc": 4608,
      "Ġmoci": 4609,
      "pali": 4610,
      "vysla": 4611,
      "Ġkas": 4612,
      "konov": 4613,
      "Ġsena": 4614,
      "rali": 4615,
      "icka": 4616,
      "mum": 4617,
      "Ġmeni": 4618,
      "hovor": 4619,
      "Ġmm": 4620,
      "lep": 4621,
      "rtfo": 4622,
      "vcov": 4623,
      "zska": 4624,
      "Ġodvet": 4625,
      "senia": 4626,
      "Ġkova": 4627,
      "Ġobdobia": 4628,
      "Ġkami": 4629,
      "dnut": 4630,
      "Ġpriznal": 4631,
      "Ġochran": 4632,
      "Ġnevyhnu": 4633,
      "Ġpsych": 4634,
      "Ġdiscipli": 4635,
      "iemu": 4636,
      "Ġorba": 4637,
      "Ġcirke": 4638,
      "Ġfondov": 4639,
      "Ġzverejnil": 4640,
      "Ġzastre": 4641,
      "tn": 4642,
      "Ġpoko": 4643,
      "Ġpoplat": 4644,
      "Ġzdan": 4645,
      "Ġmiklos": 4646,
      "dovi": 4647,
      "Ġchodni": 4648,
      "Ġatmos": 4649,
      "Ġposunu": 4650,
      "Ġreuters": 4651,
      "dzky": 4652,
      "Ġparku": 4653,
      "Ġabsolv": 4654,
      "Ġdobe": 4655,
      "razu": 4656,
      "Ġdizaj": 4657,
      "Ġbiznis": 4658,
      "Ġzamestnanci": 4659,
      "Ġnetreba": 4660,
      "torom": 4661,
      "Ġprerus": 4662,
      "Ġodk": 4663,
      "Ġprirodz": 4664,
      "tek": 4665,
      "lobo": 4666,
      "Ġdvana": 4667,
      "stavba": 4668,
      "Ġobaja": 4669,
      "Ġkatastro": 4670,
      "Ġzastupitel": 4671,
      "aduje": 4672,
      "Ġcla": 4673,
      "Ġprave": 4674,
      "Ġsemi": 4675,
      "Ġtlak": 4676,
      "Ġvobec": 4677,
      "Ġokru": 4678,
      "necha": 4679,
      "cimi": 4680,
      "Ġprospech": 4681,
      "Ġadminist": 4682,
      "hle": 4683,
      "Ġmnohe": 4684,
      "Ġvesmi": 4685,
      "enec": 4686,
      "Ġatmosfe": 4687,
      "Ġatra": 4688,
      "Ġzastav": 4689,
      "Ġneregistrovany": 4690,
      "Ġvoja": 4691,
      "Ġautomobilov": 4692,
      "Ġzbrane": 4693,
      "Ġkup": 4694,
      "bnu": 4695,
      "liet": 4696,
      "nimoc": 4697,
      "Ġvice": 4698,
      "Ġosobi": 4699,
      "Ġroberta": 4700,
      "Ġpostavit": 4701,
      "Ġvolkswagen": 4702,
      "Ġslovo": 4703,
      "Ġexpre": 4704,
      "ente": 4705,
      "Ġdokona": 4706,
      "Ġsuma": 4707,
      "chatel": 4708,
      "Ġkomerc": 4709,
      "Ġskry": 4710,
      "Ġspomenu": 4711,
      "Ġurcite": 4712,
      "Ġchar": 4713,
      "isty": 4714,
      "Ġsyna": 4715,
      "berie": 4716,
      "Ġiraku": 4717,
      "Ġnajniz": 4718,
      "pisy": 4719,
      "Ġpodari": 4720,
      "Ġbro": 4721,
      "ajne": 4722,
      "Ġumele": 4723,
      "Ġnestac": 4724,
      "ane": 4725,
      "Ġpercentny": 4726,
      "kciu": 4727,
      "vodni": 4728,
      "Ġhre": 4729,
      "elom": 4730,
      "udske": 4731,
      "lania": 4732,
      "Ġmarki": 4733,
      "Ġproblem": 4734,
      "Ġpodobe": 4735,
      "Ġobchodu": 4736,
      "Ġprezidentom": 4737,
      "Ġpovinnosti": 4738,
      "Ġospravedl": 4739,
      "enc": 4740,
      "Ġprivi": 4741,
      "Ġodcha": 4742,
      "bora": 4743,
      "Ġran": 4744,
      "logicke": 4745,
      "hradu": 4746,
      "we": 4747,
      "kazy": 4748,
      "Ġveria": 4749,
      "Ġnemala": 4750,
      "Ġpoboc": 4751,
      "Ġakoby": 4752,
      "tovne": 4753,
      "Ġhlad": 4754,
      "Ġchcela": 4755,
      "Ġmartina": 4756,
      "Ġpreka": 4757,
      "Ġton": 4758,
      "Ġtrva": 4759,
      "mky": 4760,
      "Ġporad": 4761,
      "skoc": 4762,
      "pod": 4763,
      "dovanie": 4764,
      "Ġhroma": 4765,
      "Ġkompe": 4766,
      "nikaju": 4767,
      "robkov": 4768,
      "Ġpripraveny": 4769,
      "rovatel": 4770,
      "Ġbody": 4771,
      "Ġplyn": 4772,
      "Ġobchodni": 4773,
      "Ġstroj": 4774,
      "Ġvyslov": 4775,
      "nickej": 4776,
      "Ġparlamentny": 4777,
      "Ġbratislavskej": 4778,
      "Ġmesiacoch": 4779,
      "Ġpali": 4780,
      "Ġsexua": 4781,
      "Ġprojektov": 4782,
      "Ġbelgic": 4783,
      "nsko": 4784,
      "toky": 4785,
      "Ġintenzi": 4786,
      "Ġberli": 4787,
      "Ġzhodno": 4788,
      "Ġrozu": 4789,
      "Ġzraneny": 4790,
      "Ġdobra": 4791,
      "Ġaudi": 4792,
      "Ġbratislavskom": 4793,
      "iadna": 4794,
      "Ġust": 4795,
      "Ġnepla": 4796,
      "Ġrakov": 4797,
      "Ġradika": 4798,
      "Ġzaznamena": 4799,
      "Ġhtt": 4800,
      "Ġvede": 4801,
      "tatisti": 4802,
      "Ġrt": 4803,
      "Ġsmie": 4804,
      "ted": 4805,
      "Ġfilmu": 4806,
      "kromny": 4807,
      "Ġobhaj": 4808,
      "Ġzmien": 4809,
      "Ġpolitiku": 4810,
      "Ġzaobera": 4811,
      "Ġhistoricky": 4812,
      "jaju": 4813,
      "poli": 4814,
      "Ġbanskej": 4815,
      "enou": 4816,
      "Ġmerkel": 4817,
      "Ġnevidi": 4818,
      "Ġudalosti": 4819,
      "Ġteo": 4820,
      "Ġnav": 4821,
      "Ġposa": 4822,
      "Ġktorou": 4823,
      "Ġprostredie": 4824,
      "Ġpozornost": 4825,
      "nt": 4826,
      "Ġdevia": 4827,
      "guju": 4828,
      "Ġpokry": 4829,
      "Ġmajstrovstva": 4830,
      "Ġpredbez": 4831,
      "Ġnajdo": 4832,
      "Ġzbran": 4833,
      "zme": 4834,
      "Ġdoby": 4835,
      "Ġek": 4836,
      "chodne": 4837,
      "iadali": 4838,
      "Ġpotravi": 4839,
      "danie": 4840,
      "pom": 4841,
      "Ġaplika": 4842,
      "kas": 4843,
      "paren": 4844,
      "kladatel": 4845,
      "Ġpondel": 4846,
      "Ġpriazni": 4847,
      "itu": 4848,
      "yo": 4849,
      "Ġtajomni": 4850,
      "Ġsemifina": 4851,
      "Ġzisku": 4852,
      "Ġnezamestnanosti": 4853,
      "Ġpodporuje": 4854,
      "Ġpolicajne": 4855,
      "Ġgrand": 4856,
      "senost": 4857,
      "Ġnauc": 4858,
      "Ġdalo": 4859,
      "Ġdohoda": 4860,
      "Ġkamio": 4861,
      "enstvo": 4862,
      "skum": 4863,
      "Ġtabul": 4864,
      "skoro": 4865,
      "Ġkuchy": 4866,
      "Ġsyn": 4867,
      "Ġzemetra": 4868,
      "Ġmag": 4869,
      "pady": 4870,
      "Ġzjedno": 4871,
      "Ġnece": 4872,
      "Ġhost": 4873,
      "Ġoslov": 4874,
      "Ġsoft": 4875,
      "Ġtvoj": 4876,
      "Ġpak": 4877,
      "Ġvela": 4878,
      "Ġslobody": 4879,
      "bni": 4880,
      "Ġove": 4881,
      "Ġalian": 4882,
      "time": 4883,
      "Ġruky": 4884,
      "Ġmestske": 4885,
      "Ġinzera": 4886,
      "Ġtradi": 4887,
      "Ġdvakra": 4888,
      "Ġzdravotnej": 4889,
      "Ġdarc": 4890,
      "Ġzasah": 4891,
      "Ġnepodarilo": 4892,
      "Ġudel": 4893,
      "Ġdigi": 4894,
      "Ġkonat": 4895,
      "Ġpacientov": 4896,
      "Ġrozvoja": 4897,
      "Ġfirmu": 4898,
      "pisu": 4899,
      "hrady": 4900,
      "hanie": 4901,
      "Ġroman": 4902,
      "pilo": 4903,
      "Ġinvestor": 4904,
      "Ġosoba": 4905,
      "Ġklesa": 4906,
      "adat": 4907,
      "Ġotvorene": 4908,
      "Ġupozornil": 4909,
      "fia": 4910,
      "Ġtrhoch": 4911,
      "Ġkrimina": 4912,
      "Ġarchite": 4913,
      "Ġsv": 4914,
      "Ġflo": 4915,
      "dos": 4916,
      "idov": 4917,
      "Ġotra": 4918,
      "mery": 4919,
      "Ġruskom": 4920,
      "kazuje": 4921,
      "Ġstavebne": 4922,
      "Ġciest": 4923,
      "tovany": 4924,
      "Ġlez": 4925,
      "Ġharab": 4926,
      "zalo": 4927,
      "dor": 4928,
      "tilo": 4929,
      "zil": 4930,
      "Ġurobili": 4931,
      "Ġbomba": 4932,
      "wo": 4933,
      "Ġreality": 4934,
      "Ġhranicu": 4935,
      "avy": 4936,
      "Ġsmo": 4937,
      "niu": 4938,
      "Ġrodinu": 4939,
      "dru": 4940,
      "doval": 4941,
      "lnou": 4942,
      "taj": 4943,
      "maju": 4944,
      "Ġleho": 4945,
      "Ġsov": 4946,
      "entom": 4947,
      "rody": 4948,
      "rika": 4949,
      "Ġrokovat": 4950,
      "Ġcestovne": 4951,
      "Ġmetropo": 4952,
      "Ġhomo": 4953,
      "lenda": 4954,
      "zoru": 4955,
      "Ġregula": 4956,
      "Ġmiroslav": 4957,
      "Ġukrajina": 4958,
      "Ġfestival": 4959,
      "ava": 4960,
      "rku": 4961,
      "forma": 4962,
      "Ġprograme": 4963,
      "Ġobrovsky": 4964,
      "ata": 4965,
      "Ġmoni": 4966,
      "muje": 4967,
      "Ġkroky": 4968,
      "dzuju": 4969,
      "Ġbit": 4970,
      "mych": 4971,
      "Ġviete": 4972,
      "Ġbrusel": 4973,
      "Ġmc": 4974,
      "Ġrozdie": 4975,
      "Ġchemi": 4976,
      "Ġodpoc": 4977,
      "Ġpolovica": 4978,
      "Ġfutbalovy": 4979,
      "Ġrealiza": 4980,
      "Ġrekord": 4981,
      "Ġpenzio": 4982,
      "iadost": 4983,
      "Ġvon": 4984,
      "Ġmatka": 4985,
      "iera": 4986,
      "robny": 4987,
      "Ġporadi": 4988,
      "dium": 4989,
      "Ġpark": 4990,
      "Ġmarci": 4991,
      "Ġvzdia": 4992,
      "Ġdole": 4993,
      "Ġkur": 4994,
      "Ġskon": 4995,
      "rovali": 4996,
      "zsku": 4997,
      "Ġporo": 4998,
      "Ġpam": 4999,
      "Ġkalenda": 5000,
      "Ġorganiz": 5001,
      "Ġseptembri": 5002,
      "Ġdodala": 5003,
      "Ġzmluva": 5004,
      "Ġsankcie": 5005,
      "Ġiniciati": 5006,
      "Ġbl": 5007,
      "Ġvysku": 5008,
      "Ġdeba": 5009,
      "Ġlop": 5010,
      "Ġposlednom": 5011,
      "Ġadministrati": 5012,
      "zd": 5013,
      "roda": 5014,
      "Ġvlastnej": 5015,
      "vate": 5016,
      "nopra": 5017,
      "Ġrop": 5018,
      "jit": 5019,
      "Ġkonferencii": 5020,
      "Ġtamo": 5021,
      "Ġcon": 5022,
      "Ġkontroly": 5023,
      "zsky": 5024,
      "Ġstavebny": 5025,
      "Ġnajkrajs": 5026,
      "sobne": 5027,
      "Ġdeta": 5028,
      "Ġvedci": 5029,
      "Ġminulo": 5030,
      "Ġdot": 5031,
      "Ġmilan": 5032,
      "Ġdlhu": 5033,
      "Ġnezabu": 5034,
      "Ġrozhovore": 5035,
      "luju": 5036,
      "Ġpusti": 5037,
      "Ġulice": 5038,
      "seny": 5039,
      "Ġkonani": 5040,
      "zory": 5041,
      "Ġkali": 5042,
      "Ġpohla": 5043,
      "Ġclin": 5044,
      "dovej": 5045,
      "Ġkolla": 5046,
      "Ġdunaj": 5047,
      "rsko": 5048,
      "zds": 5049,
      "Ġpotes": 5050,
      "Ġrozpo": 5051,
      "Ġeurofo": 5052,
      "Ġposlane": 5053,
      "Ġura": 5054,
      "Ġalexan": 5055,
      "Ġnasled": 5056,
      "Ġkosto": 5057,
      "padny": 5058,
      "Ġzoznam": 5059,
      "Ġinci": 5060,
      "Ġchaty": 5061,
      "Ġveritel": 5062,
      "Ġexeku": 5063,
      "Ġmodera": 5064,
      "zemie": 5065,
      "Ġnovember": 5066,
      "Ġnechy": 5067,
      "portu": 5068,
      "Ġjuraj": 5069,
      "Ġnadobu": 5070,
      "dove": 5071,
      "pp": 5072,
      "elka": 5073,
      "Ġidea": 5074,
      "tefan": 5075,
      "iti": 5076,
      "raznejs": 5077,
      "Ġnovely": 5078,
      "Ġopatreni": 5079,
      "Ġmech": 5080,
      "Ġpotrebuju": 5081,
      "Ġakade": 5082,
      "Ġspreva": 5083,
      "Ġkatoli": 5084,
      "tovom": 5085,
      "covanie": 5086,
      "pc": 5087,
      "Ġzapoji": 5088,
      "asnej": 5089,
      "tudentov": 5090,
      "Ġdohodli": 5091,
      "Ġpoplatky": 5092,
      "ovac": 5093,
      "sledy": 5094,
      "Ġkompli": 5095,
      "Ġsitaap": 5096,
      "Ġinciden": 5097,
      "desiat": 5098,
      "Ġbulha": 5099,
      "Ġtamojs": 5100,
      "ticka": 5101,
      "Ġtakom": 5102,
      "Ġtere": 5103,
      "Ġsex": 5104,
      "Ġwww": 5105,
      "dzal": 5106,
      "Ġkonkurz": 5107,
      "Ġemailom": 5108,
      "Ġargumen": 5109,
      "Ġmerkelova": 5110,
      "stran": 5111,
      "inove": 5112,
      "nuju": 5113,
      "Ġvlastnu": 5114,
      "Ġtvoria": 5115,
      "padlo": 5116,
      "roup": 5117,
      "dneho": 5118,
      "Ġbask": 5119,
      "Ġmic": 5120,
      "Ġmoji": 5121,
      "Ġspor": 5122,
      "Ġstraty": 5123,
      "Ġfakul": 5124,
      "Ġdecember": 5125,
      "Ġplus": 5126,
      "cher": 5127,
      "Ġrozsu": 5128,
      "Ġextra": 5129,
      "Ġprezidentsky": 5130,
      "kromne": 5131,
      "Ġmoskva": 5132,
      "Ġec": 5133,
      "Ġmoja": 5134,
      "ord": 5135,
      "Ġbielo": 5136,
      "Ġdeje": 5137,
      "tnejs": 5138,
      "Ġprema": 5139,
      "bit": 5140,
      "Ġpriemyslu": 5141,
      "iestich": 5142,
      "Ġhit": 5143,
      "itelia": 5144,
      "Ġdopravny": 5145,
      "Ġnaposledy": 5146,
      "hro": 5147,
      "Ġzmysel": 5148,
      "Ġindivi": 5149,
      "stanu": 5150,
      "ino": 5151,
      "Ġstavat": 5152,
      "ktora": 5153,
      "Ġcibulkova": 5154,
      "Ġmul": 5155,
      "Ġkotleba": 5156,
      "Ġblu": 5157,
      "Ġdopravu": 5158,
      "Ġaugust": 5159,
      "kosti": 5160,
      "Ġmestsky": 5161,
      "skor": 5162,
      "Ġkraja": 5163,
      "Ġturistov": 5164,
      "dovali": 5165,
      "gina": 5166,
      "kc": 5167,
      "Ġdiel": 5168,
      "Ġhotel": 5169,
      "Ġnads": 5170,
      "Ġspp": 5171,
      "grafi": 5172,
      "Ġcestou": 5173,
      "Ġzahynulo": 5174,
      "nskych": 5175,
      "tenia": 5176,
      "predu": 5177,
      "Ġuprav": 5178,
      "voka": 5179,
      "Ġstale": 5180,
      "Ġinternete": 5181,
      "Ġpodniky": 5182,
      "Ġislamsky": 5183,
      "Ġubytovania": 5184,
      "ning": 5185,
      "ley": 5186,
      "Ġzatvo": 5187,
      "Ġfedere": 5188,
      "stan": 5189,
      "pem": 5190,
      "mavy": 5191,
      "Ġosobnosti": 5192,
      "iarov": 5193,
      "Ġhlavnom": 5194,
      "ilina": 5195,
      "visly": 5196,
      "bovy": 5197,
      "Ġpopolu": 5198,
      "Ġfavo": 5199,
      "lka": 5200,
      "Ġcca": 5201,
      "niku": 5202,
      "bok": 5203,
      "kladu": 5204,
      "Ġtridsat": 5205,
      "Ġvzniku": 5206,
      "Ġpostoj": 5207,
      "Ġznakov": 5208,
      "Ġpredstavenstva": 5209,
      "Ġner": 5210,
      "rovne": 5211,
      "etrit": 5212,
      "Ġprax": 5213,
      "oskoro": 5214,
      "Ġmiestach": 5215,
      "Ġzab": 5216,
      "peci": 5217,
      "Ġrozlu": 5218,
      "Ġopac": 5219,
      "Ġnitre": 5220,
      "Ġnovela": 5221,
      "Ġlod": 5222,
      "ker": 5223,
      "iadat": 5224,
      "Ġnehoda": 5225,
      "iadala": 5226,
      "Ġnepozna": 5227,
      "Ġbratislavc": 5228,
      "Ġstriel": 5229,
      "eobecne": 5230,
      "Ġbojovat": 5231,
      "Ġzodpove": 5232,
      "stla": 5233,
      "Ġvyrobi": 5234,
      "Ġroda": 5235,
      "Ġslovin": 5236,
      "Ġcelo": 5237,
      "Ġvzo": 5238,
      "Ġmieru": 5239,
      "Ġkyje": 5240,
      "ista": 5241,
      "Ġzjaz": 5242,
      "Ġpremen": 5243,
      "mili": 5244,
      "Ġae": 5245,
      "stavne": 5246,
      "Ġpotvrdila": 5247,
      "dani": 5248,
      "mon": 5249,
      "Ġdecembri": 5250,
      "Ġsadzby": 5251,
      "Ġkn": 5252,
      "Ġinternetu": 5253,
      "sn": 5254,
      "Ġpovie": 5255,
      "gom": 5256,
      "Ġneva": 5257,
      "Ġpredvie": 5258,
      "Ġvznikla": 5259,
      "sane": 5260,
      "Ġtanec": 5261,
      "Ġjana": 5262,
      "foto": 5263,
      "mej": 5264,
      "Ġrozsia": 5265,
      "aso": 5266,
      "Ġpolitickej": 5267,
      "Ġbene": 5268,
      "iadnu": 5269,
      "Ġtvori": 5270,
      "meru": 5271,
      "Ġvybrat": 5272,
      "Ġposlednej": 5273,
      "bel": 5274,
      "cuje": 5275,
      "tion": 5276,
      "Ġtela": 5277,
      "Ġplatia": 5278,
      "Ġobete": 5279,
      "Ġpresti": 5280,
      "mic": 5281,
      "celo": 5282,
      "etrovatel": 5283,
      "Ġprekroc": 5284,
      "Ġdiskusne": 5285,
      "davkov": 5286,
      "tak": 5287,
      "tic": 5288,
      "Ġeko": 5289,
      "Ġjednotky": 5290,
      "Ġpokutu": 5291,
      "Ġnbs": 5292,
      "Ġpraz": 5293,
      "Ġtenist": 5294,
      "Ġautobus": 5295,
      "ec": 5296,
      "dzku": 5297,
      "pka": 5298,
      "padnej": 5299,
      "Ġwin": 5300,
      "Ġsnehu": 5301,
      "Ġpouka": 5302,
      "eskosloven": 5303,
      "ivi": 5304,
      "Ġsh": 5305,
      "robe": 5306,
      "iakov": 5307,
      "iatok": 5308,
      "let": 5309,
      "Ġdvojna": 5310,
      "Ġustanov": 5311,
      "Ġindividu": 5312,
      "Ġvoli": 5313,
      "Ġzdiela": 5314,
      "ikovia": 5315,
      "Ġpoklad": 5316,
      "Ġpalesti": 5317,
      "Ġstara": 5318,
      "ckeho": 5319,
      "Ġjohn": 5320,
      "Ġpoprad": 5321,
      "Ġutor": 5322,
      "dovany": 5323,
      "Ġfilmov": 5324,
      "Ġprodukcie": 5325,
      "tvych": 5326,
      "imi": 5327,
      "Ġnami": 5328,
      "Ġrepublike": 5329,
      "Ġscena": 5330,
      "Ġote": 5331,
      "Ġrating": 5332,
      "tiek": 5333,
      "adaju": 5334,
      "Ġdopyt": 5335,
      "Ġreferendum": 5336,
      "Ġuplynuly": 5337,
      "vinu": 5338,
      "zin": 5339,
      "Ġmani": 5340,
      "Ġmyslim": 5341,
      "Ġatd": 5342,
      "Ġjednotlive": 5343,
      "kva": 5344,
      "snej": 5345,
      "Ġvzor": 5346,
      "chodku": 5347,
      "rstvo": 5348,
      "Ġaute": 5349,
      "Ġklesol": 5350,
      "Ġteho": 5351,
      "Ġbanke": 5352,
      "lenia": 5353,
      "Ġmagist": 5354,
      "burg": 5355,
      "Ġnovembri": 5356,
      "ahov": 5357,
      "Ġrichard": 5358,
      "Ġoblec": 5359,
      "Ġandre": 5360,
      "portove": 5361,
      "Ġdeficit": 5362,
      "hry": 5363,
      "ivnost": 5364,
      "Ġnerobi": 5365,
      "cest": 5366,
      "Ġtransparen": 5367,
      "Ġpozera": 5368,
      "Ġsprie": 5369,
      "Ġrevolu": 5370,
      "tvrty": 5371,
      "Ġzma": 5372,
      "Ġprepoj": 5373,
      "visia": 5374,
      "Ġdisk": 5375,
      "Ġdomy": 5376,
      "Ġps": 5377,
      "Ġplato": 5378,
      "Ġviest": 5379,
      "Ġrodinny": 5380,
      "Ġskupine": 5381,
      "Ġrastie": 5382,
      "Ġkvarta": 5383,
      "Ġmusela": 5384,
      "Ġbasket": 5385,
      "Ġsn": 5386,
      "Ġzaba": 5387,
      "Ġsty": 5388,
      "Ġvedel": 5389,
      "Ġkniz": 5390,
      "Ġuzatvo": 5391,
      "Ġinvestori": 5392,
      "ovske": 5393,
      "Ġpotreby": 5394,
      "Ġposkyt": 5395,
      "Ġtenis": 5396,
      "Ġspoc": 5397,
      "Ġvzdy": 5398,
      "iadavky": 5399,
      "Ġsia": 5400,
      "Ġer": 5401,
      "Ġvianoce": 5402,
      "Ġreformy": 5403,
      "Ġnetra": 5404,
      "Ġzlata": 5405,
      "Ġbilan": 5406,
      "iadosti": 5407,
      "Ġlenz": 5408,
      "Ġhranic": 5409,
      "anou": 5410,
      "novany": 5411,
      "ovaniu": 5412,
      "Ġvojenske": 5413,
      "kos": 5414,
      "hrad": 5415,
      "Ġnikoho": 5416,
      "Ġinfras": 5417,
      "Ġneodoberat": 5418,
      "Ġsoftve": 5419,
      "gicke": 5420,
      "Ġlacnejs": 5421,
      "Ġsma": 5422,
      "Ġzmene": 5423,
      "Ġneuveritel": 5424,
      "inovy": 5425,
      "Ġret": 5426,
      "Ġpec": 5427,
      "Ġvedl": 5428,
      "Ġoslobo": 5429,
      "Ġodvolani": 5430,
      "Ġcas": 5431,
      "Ġit": 5432,
      "stava": 5433,
      "Ġtalianska": 5434,
      "Ġtriedy": 5435,
      "Ġhlbo": 5436,
      "Ġfestivalu": 5437,
      "mesac": 5438,
      "Ġstras": 5439,
      "dzac": 5440,
      "Ġgoog": 5441,
      "Ġjedena": 5442,
      "Ġslovana": 5443,
      "Ġanke": 5444,
      "Ġvyjadrenia": 5445,
      "Ġzdielat": 5446,
      "Ġzmi": 5447,
      "Ġvyhov": 5448,
      "Ġtrestny": 5449,
      "Ġstanice": 5450,
      "Ġstarostlivost": 5451,
      "Ġzaznamenali": 5452,
      "zemia": 5453,
      "Ġletisko": 5454,
      "ive": 5455,
      "ubomi": 5456,
      "ofe": 5457,
      "Ġvhodne": 5458,
      "tech": 5459,
      "Ġvsak": 5460,
      "Ġcivili": 5461,
      "Ġtransak": 5462,
      "Ġcin": 5463,
      "Ġsamotny": 5464,
      "Ġklesla": 5465,
      "omu": 5466,
      "Ġvytia": 5467,
      "Ġstredi": 5468,
      "tolo": 5469,
      "oma": 5470,
      "Ġcud": 5471,
      "Ġprakti": 5472,
      "Ġpriemere": 5473,
      "Ġcirkvi": 5474,
      "Ġnezamestnanost": 5475,
      "Ġeviden": 5476,
      "Ġcer": 5477,
      "Ġproste": 5478,
      "Ġnechcu": 5479,
      "Ġpoistne": 5480,
      "Ġtechnicky": 5481,
      "Ġsamov": 5482,
      "Ġvsetci": 5483,
      "Ġbisku": 5484,
      "Ġknihy": 5485,
      "piet": 5486,
      "Ġoci": 5487,
      "kolu": 5488,
      "Ġkoncert": 5489,
      "Ġrelati": 5490,
      "Ġpresunu": 5491,
      "Ġvietor": 5492,
      "Ġbicy": 5493,
      "koval": 5494,
      "kovane": 5495,
      "tani": 5496,
      "uji": 5497,
      "rania": 5498,
      "Ġsobotn": 5499,
      "stne": 5500,
      "Ġdel": 5501,
      "Ġuloz": 5502,
      "Ġrodi": 5503,
      "stuju": 5504,
      "Ġhodinu": 5505,
      "Ġzlato": 5506,
      "nanie": 5507,
      "Ġposiela": 5508,
      "ahko": 5509,
      "Ġtrnav": 5510,
      "konu": 5511,
      "lon": 5512,
      "Ġposlat": 5513,
      "Ġpribli": 5514,
      "caju": 5515,
      "Ġponuka": 5516,
      "Ġali": 5517,
      "Ġnedostatok": 5518,
      "inky": 5519,
      "akat": 5520,
      "znamny": 5521,
      "Ġbiely": 5522,
      "Ġclinto": 5523,
      "Ġbieloru": 5524,
      "Ġkor": 5525,
      "zane": 5526,
      "Ġkoncu": 5527,
      "Ġmesiaca": 5528,
      "Ġkolekti": 5529,
      "Ġkombina": 5530,
      "zenia": 5531,
      "ano": 5532,
      "prave": 5533,
      "Ġtvoje": 5534,
      "Ġpovinne": 5535,
      "Ġvrtul": 5536,
      "Ġuniverzity": 5537,
      "niza": 5538,
      "Ġfabri": 5539,
      "Ġhviezda": 5540,
      "Ġopy": 5541,
      "vita": 5542,
      "seku": 5543,
      "berg": 5544,
      "Ġproblemati": 5545,
      "hody": 5546,
      "Ġkontin": 5547,
      "Ġvedeli": 5548,
      "Ġuverej": 5549,
      "Ġbm": 5550,
      "Ġporu": 5551,
      "lii": 5552,
      "Ġchodi": 5553,
      "Ġsms": 5554,
      "Ġpodujati": 5555,
      "Ġostrov": 5556,
      "pky": 5557,
      "Ġovo": 5558,
      "dec": 5559,
      "Ġposlal": 5560,
      "Ġdigita": 5561,
      "kovali": 5562,
      "Ġel": 5563,
      "Ġbytu": 5564,
      "Ġnavrhuje": 5565,
      "Ġnejaku": 5566,
      "Ġambi": 5567,
      "rgu": 5568,
      "zom": 5569,
      "Ġph": 5570,
      "Ġnakru": 5571,
      "Ġgroup": 5572,
      "Ġlajc": 5573,
      "chutna": 5574,
      "Ġpolicajny": 5575,
      "Ġkvalitu": 5576,
      "produ": 5577,
      "Ġprijat": 5578,
      "Ġnaku": 5579,
      "Ġprepoc": 5580,
      "dlz": 5581,
      "Ġportu": 5582,
      "Ġrodine": 5583,
      "Ġtepla": 5584,
      "Ġkonte": 5585,
      "Ġjednoduche": 5586,
      "Ġnemysli": 5587,
      "kovou": 5588,
      "organi": 5589,
      "ham": 5590,
      "Ġletisku": 5591,
      "Ġletiska": 5592,
      "Ġalbum": 5593,
      "Ġrtvs": 5594,
      "Ġzja": 5595,
      "Ġposlanca": 5596,
      "Ġvolebne": 5597,
      "Ġneznamena": 5598,
      "Ġodpor": 5599,
      "dnutie": 5600,
      "Ġislami": 5601,
      "Ġstarostlivosti": 5602,
      "lt": 5603,
      "nmi": 5604,
      "Ġsila": 5605,
      "menal": 5606,
      "Ġzdravie": 5607,
      "Ġvojaci": 5608,
      "Ġpobrez": 5609,
      "Ġsmere": 5610,
      "Ġskor": 5611,
      "Ġklient": 5612,
      "cker": 5613,
      "Ġbystrici": 5614,
      "Ġprista": 5615,
      "Ġkoli": 5616,
      "Ġoslab": 5617,
      "Ġmagistra": 5618,
      "jne": 5619,
      "jsky": 5620,
      "mana": 5621,
      "Ġmis": 5622,
      "Ġlimi": 5623,
      "stupcovia": 5624,
      "Ġcity": 5625,
      "lizovat": 5626,
      "riz": 5627,
      "meho": 5628,
      "Ġsumy": 5629,
      "Ġkonzer": 5630,
      "Ġhodina": 5631,
      "Ġnepred": 5632,
      "Ġbio": 5633,
      "tiku": 5634,
      "chodcov": 5635,
      "Ġpodpory": 5636,
      "Ġproduktov": 5637,
      "Ġmosthi": 5638,
      "Ġusporia": 5639,
      "Ġinej": 5640,
      "Ġreal": 5641,
      "Ġstratu": 5642,
      "Ġuvidi": 5643,
      "tnou": 5644,
      "enku": 5645,
      "hova": 5646,
      "Ġprahe": 5647,
      "Ġdopravne": 5648,
      "Ġcast": 5649,
      "teo": 5650,
      "ake": 5651,
      "Ġnoviny": 5652,
      "Ġbiele": 5653,
      "kor": 5654,
      "Ġnemci": 5655,
      "Ġfc": 5656,
      "Ġdobu": 5657,
      "lovom": 5658,
      "Ġodv": 5659,
      "Ġforme": 5660,
      "Ġklesli": 5661,
      "Ġrodinne": 5662,
      "Ġzamie": 5663,
      "Ġodhal": 5664,
      "Ġakciu": 5665,
      "Ġpeda": 5666,
      "Ġtentoraz": 5667,
      "oci": 5668,
      "Ġoku": 5669,
      "kohol": 5670,
      "Ġekono": 5671,
      "Ġpredat": 5672,
      "robky": 5673,
      "Ġhovoril": 5674,
      "Ġochrany": 5675,
      "Ġsudcov": 5676,
      "Ġmono": 5677,
      "Ġhviezdy": 5678,
      "Ġrovno": 5679,
      "Ġyorku": 5680,
      "Ġpodpredseda": 5681,
      "Ġjaku": 5682,
      "Ġodchod": 5683,
      "rami": 5684,
      "ance": 5685,
      "Ġdohl": 5686,
      "Ġboz": 5687,
      "Ġtem": 5688,
      "platne": 5689,
      "Ġzviera": 5690,
      "Ġnovi": 5691,
      "Ġnevedeli": 5692,
      "dnic": 5693,
      "novane": 5694,
      "Ġpripa": 5695,
      "Ġchyba": 5696,
      "uzu": 5697,
      "Ġcenny": 5698,
      "Ġadvoka": 5699,
      "Ġregistra": 5700,
      "Ġive": 5701,
      "Ġautom": 5702,
      "stok": 5703,
      "Ġobrovske": 5704,
      "Ġmhd": 5705,
      "imu": 5706,
      "Ġpodpis": 5707,
      "Ġodpad": 5708,
      "Ġmanda": 5709,
      "Ġstarosta": 5710,
      "Ġmobilny": 5711,
      "Ġobjeme": 5712,
      "Ġportugal": 5713,
      "tedajs": 5714,
      "tim": 5715,
      "jal": 5716,
      "Ġdostatok": 5717,
      "Ġcelkovej": 5718,
      "Ġcor": 5719,
      "iste": 5720,
      "lnec": 5721,
      "kovatel": 5722,
      "Ġnevz": 5723,
      "Ġdzurinda": 5724,
      "af": 5725,
      "zsko": 5726,
      "anka": 5727,
      "Ġnehode": 5728,
      "trover": 5729,
      "Ġmarec": 5730,
      "Ġleta": 5731,
      "Ġtretej": 5732,
      "Ġpriestory": 5733,
      "hovy": 5734,
      "ime": 5735,
      "delit": 5736,
      "kujem": 5737,
      "Ġtelekomunikac": 5738,
      "pasy": 5739,
      "Ġspon": 5740,
      "Ġtali": 5741,
      "etrovanie": 5742,
      "razili": 5743,
      "Ġfungovat": 5744,
      "Ġalkohol": 5745,
      "jemne": 5746,
      "Ġpravdepodob": 5747,
      "bic": 5748,
      "cla": 5749,
      "Ġzboru": 5750,
      "Ġdomini": 5751,
      "Ġturisti": 5752,
      "Ġarg": 5753,
      "Ġchut": 5754,
      "Ġodpa": 5755,
      "asna": 5756,
      "Ġnevys": 5757,
      "Ġpriestoru": 5758,
      "Ġumel": 5759,
      "Ġukazuje": 5760,
      "salo": 5761,
      "Ġfigel": 5762,
      "Ġinformovali": 5763,
      "Ġhokejovej": 5764,
      "Ġpreteky": 5765,
      "Ġpojedna": 5766,
      "Ġkoncep": 5767,
      "entovat": 5768,
      "Ġchybu": 5769,
      "Ġokolnosti": 5770,
      "tve": 5771,
      "Ġnam": 5772,
      "sr": 5773,
      "zol": 5774,
      "sok": 5775,
      "Ġobsahuje": 5776,
      "kost": 5777,
      "Ġros": 5778,
      "Ġprofi": 5779,
      "kazu": 5780,
      "hnute": 5781,
      "porte": 5782,
      "Ġslnec": 5783,
      "Ġate": 5784,
      "Ġfrance": 5785,
      "Ġpripravit": 5786,
      "Ġfinancovanie": 5787,
      "ivy": 5788,
      "schop": 5789,
      "zvu": 5790,
      "Ġpripi": 5791,
      "lnymi": 5792,
      "Ġnemeckej": 5793,
      "Ġpodozrivy": 5794,
      "pina": 5795,
      "Ġvyka": 5796,
      "Ġvieden": 5797,
      "Ġsiedmi": 5798,
      "kty": 5799,
      "lohy": 5800,
      "lohou": 5801,
      "Ġmame": 5802,
      "Ġodve": 5803,
      "Ġoperac": 5804,
      "Ġalkoholu": 5805,
      "Ġneexistuje": 5806,
      "Ġqu": 5807,
      "Ġnasta": 5808,
      "Ġdodnes": 5809,
      "bystri": 5810,
      "Ġlitera": 5811,
      "Ġpoistenie": 5812,
      "Ġwillia": 5813,
      "her": 5814,
      "enko": 5815,
      "pela": 5816,
      "roso": 5817,
      "tine": 5818,
      "Ġgol": 5819,
      "lovic": 5820,
      "etke": 5821,
      "Ġdekla": 5822,
      "Ġakej": 5823,
      "Ġbese": 5824,
      "Ġmerce": 5825,
      "dke": 5826,
      "Ġdop": 5827,
      "hodnejs": 5828,
      "Ġnechcel": 5829,
      "Ġzachy": 5830,
      "Ġmoj": 5831,
      "Ġparkova": 5832,
      "Ġloka": 5833,
      "Ġmlads": 5834,
      "znamne": 5835,
      "Ġstavby": 5836,
      "borne": 5837,
      "Ġkoma": 5838,
      "Ġudalost": 5839,
      "Ġbohuz": 5840,
      "Ġdvoji": 5841,
      "Ġchyby": 5842,
      "Ġvyhrali": 5843,
      "Ġbritske": 5844,
      "Ġelektriny": 5845,
      "Ġvojensky": 5846,
      "Ġsepa": 5847,
      "Ġkompeten": 5848,
      "live": 5849,
      "erpa": 5850,
      "vice": 5851,
      "Ġkong": 5852,
      "Ġbankovy": 5853,
      "Ġdostalo": 5854,
      "Ġdobru": 5855,
      "Ġnuz": 5856,
      "kone": 5857,
      "Ġnelega": 5858,
      "Ġjedi": 5859,
      "Ġmatu": 5860,
      "Ġmechani": 5861,
      "Ġmra": 5862,
      "robia": 5863,
      "Ġpretekoch": 5864,
      "Ġorigina": 5865,
      "Ġslalom": 5866,
      "Ġzbier": 5867,
      "ws": 5868,
      "pira": 5869,
      "jomne": 5870,
      "pasov": 5871,
      "iline": 5872,
      "robca": 5873,
      "Ġobvinenia": 5874,
      "Ġzistili": 5875,
      "Ġmoslim": 5876,
      "move": 5877,
      "Ġfra": 5878,
      "Ġplane": 5879,
      "Ġsvojmu": 5880,
      "Ġvojnu": 5881,
      "Ġskupinu": 5882,
      "Ġzvaz": 5883,
      "Ġnaju": 5884,
      "iadaju": 5885,
      "Ġbarcelo": 5886,
      "Ġcudzin": 5887,
      "pn": 5888,
      "Ġplny": 5889,
      "Ġklo": 5890,
      "Ġpane": 5891,
      "Ġchi": 5892,
      "vrhy": 5893,
      "Ġfunkciu": 5894,
      "Ġpodielu": 5895,
      "sz": 5896,
      "cal": 5897,
      "speli": 5898,
      "Ġpredaji": 5899,
      "Ġindividua": 5900,
      "jali": 5901,
      "Ġkampa": 5902,
      "Ġstrach": 5903,
      "Ġnehody": 5904,
      "Ġfunkc": 5905,
      "Ġkrvi": 5906,
      "Ġwa": 5907,
      "Ġneprez": 5908,
      "Ġyork": 5909,
      "Ġpripomenul": 5910,
      "Ġafgan": 5911,
      "Ġprispo": 5912,
      "Ġprinesie": 5913,
      "Ġkriz": 5914,
      "Ġdesiatich": 5915,
      "Ġslovna": 5916,
      "Ġnezmen": 5917,
      "Ġkvality": 5918,
      "Ġkampane": 5919,
      "drov": 5920,
      "Ġsplat": 5921,
      "Ġvre": 5922,
      "Ġgru": 5923,
      "Ġpretoze": 5924,
      "Ġnepocho": 5925,
      "Ġpokus": 5926,
      "Ġyou": 5927,
      "visle": 5928,
      "Ġrespon": 5929,
      "Ġfis": 5930,
      "ujete": 5931,
      "Ġzdraz": 5932,
      "Ġmadri": 5933,
      "Ġstoja": 5934,
      "Ġmlade": 5935,
      "Ġvysokej": 5936,
      "Ġrobili": 5937,
      "Ġzlaty": 5938,
      "Ġchudob": 5939,
      "Ġzbrani": 5940,
      "oc": 5941,
      "enzi": 5942,
      "nite": 5943,
      "Ġhlava": 5944,
      "Ġvojna": 5945,
      "Ġovplyvn": 5946,
      "iaden": 5947,
      "Ġhlavnej": 5948,
      "ins": 5949,
      "Ġpovstal": 5950,
      "Ġfutbalove": 5951,
      "zkosti": 5952,
      "Ġanalytici": 5953,
      "nicu": 5954,
      "tovani": 5955,
      "Ġautomobilky": 5956,
      "Ġstabili": 5957,
      "Ġakcia": 5958,
      "skobystri": 5959,
      "Ġdari": 5960,
      "Ġnohy": 5961,
      "Ġfigu": 5962,
      "movia": 5963,
      "Ġpodpora": 5964,
      "Ġpotravina": 5965,
      "Ġnavy": 5966,
      "ansky": 5967,
      "Ġrozbe": 5968,
      "Ġlos": 5969,
      "Ġpodporit": 5970,
      "Ġneschop": 5971,
      "trukturaliza": 5972,
      "lky": 5973,
      "ndov": 5974,
      "ang": 5975,
      "Ġstv": 5976,
      "beratel": 5977,
      "zkou": 5978,
      "Ġosvet": 5979,
      "Ġekonomiku": 5980,
      "Ġpostavenie": 5981,
      "chs": 5982,
      "zon": 5983,
      "Ġzostane": 5984,
      "Ġlepsie": 5985,
      "Ġmmf": 5986,
      "Ġkonzerva": 5987,
      "Ġresponden": 5988,
      "dzovat": 5989,
      "Ġbruseli": 5990,
      "Ġcudzi": 5991,
      "inom": 5992,
      "Ġstredajs": 5993,
      "sobia": 5994,
      "drom": 5995,
      "Ġsoc": 5996,
      "Ġhistoricke": 5997,
      "Ġvolebny": 5998,
      "Ġpedago": 5999,
      "Ġseptember": 6000,
      "Ġpotvrdili": 6001,
      "Ġzastavit": 6002,
      "Ġpreuka": 6003,
      "ati": 6004,
      "kyne": 6005,
      "Ġhudobni": 6006,
      "arov": 6007,
      "ias": 6008,
      "Ġpredpove": 6009,
      "spechu": 6010,
      "Ġpretekov": 6011,
      "Ġdovtedy": 6012,
      "Ġvysvetlil": 6013,
      "tkov": 6014,
      "dohospoda": 6015,
      "peri": 6016,
      "etri": 6017,
      "Ġrozvi": 6018,
      "Ġauguste": 6019,
      "Ġsledovat": 6020,
      "Ġdoslova": 6021,
      "Ġnastav": 6022,
      "Ġpavla": 6023,
      "Ġhokejisti": 6024,
      "Ġnitra": 6025,
      "Ġzuzana": 6026,
      "lete": 6027,
      "Ġboh": 6028,
      "mene": 6029,
      "Ġjack": 6030,
      "azom": 6031,
      "Ġwi": 6032,
      "Ġautomobilka": 6033,
      "Ġvplyvom": 6034,
      "Ġpropagan": 6035,
      "nus": 6036,
      "Ġmiera": 6037,
      "stupca": 6038,
      "Ġotvoreny": 6039,
      "nde": 6040,
      "ot": 6041,
      "rovu": 6042,
      "Ġstredne": 6043,
      "Ġmiery": 6044,
      "Ġpoistenia": 6045,
      "Ġrizika": 6046,
      "Ġuviedli": 6047,
      "drej": 6048,
      "Ġsvie": 6049,
      "Ġnapla": 6050,
      "Ġprelom": 6051,
      "Ġimu": 6052,
      "Ġodka": 6053,
      "Ġnemohol": 6054,
      "Ġbystrica": 6055,
      "vova": 6056,
      "Ġzapi": 6057,
      "voz": 6058,
      "Ġvzduchu": 6059,
      "Ġslovenc": 6060,
      "Ġfre": 6061,
      "kladat": 6062,
      "stavbe": 6063,
      "Ġvojne": 6064,
      "ahs": 6065,
      "Ġsvad": 6066,
      "bom": 6067,
      "Ġnepra": 6068,
      "Ġzeman": 6069,
      "kolsky": 6070,
      "Ġformou": 6071,
      "Ġcelebri": 6072,
      "tudenti": 6073,
      "Ġdynami": 6074,
      "Ġidenti": 6075,
      "rskom": 6076,
      "zovy": 6077,
      "Ġskons": 6078,
      "Ġprepra": 6079,
      "Ġpreno": 6080,
      "Ġposiln": 6081,
      "Ġkauza": 6082,
      "Ġmarketing": 6083,
      "ktori": 6084,
      "Ġprvo": 6085,
      "robcov": 6086,
      "Ġsummi": 6087,
      "Ġargenti": 6088,
      "Ġvtedajs": 6089,
      "posla": 6090,
      "tovost": 6091,
      "Ġvenovat": 6092,
      "war": 6093,
      "Ġpsa": 6094,
      "Ġzmysle": 6095,
      "Ġnazy": 6096,
      "Ġsar": 6097,
      "tiky": 6098,
      "trva": 6099,
      "Ġdrog": 6100,
      "Ġmac": 6101,
      "Ġmosta": 6102,
      "sek": 6103,
      "Ġjedla": 6104,
      "Ġzim": 6105,
      "Ġostatni": 6106,
      "Ġtrumpa": 6107,
      "teoro": 6108,
      "ahli": 6109,
      "rte": 6110,
      "Ġoddy": 6111,
      "Ġlogi": 6112,
      "Ġnitrian": 6113,
      "Ġtouto": 6114,
      "Ġolympijsky": 6115,
      "Ġgrandsla": 6116,
      "Ġsoviet": 6117,
      "Ġtw": 6118,
      "kus": 6119,
      "Ġhen": 6120,
      "sad": 6121,
      "bila": 6122,
      "Ġladi": 6123,
      "Ġzmeni": 6124,
      "Ġvideli": 6125,
      "Ġpotraviny": 6126,
      "Ġsamovraz": 6127,
      "Ġpochyb": 6128,
      "bert": 6129,
      "Ġfondy": 6130,
      "Ġotca": 6131,
      "Ġposte": 6132,
      "Ġvyva": 6133,
      "Ġsilu": 6134,
      "vislost": 6135,
      "Ġgeor": 6136,
      "ujme": 6137,
      "Ġnenas": 6138,
      "Ġodkial": 6139,
      "konne": 6140,
      "Ġrokovanie": 6141,
      "Ġtaki": 6142,
      "pln": 6143,
      "sobili": 6144,
      "Ġamne": 6145,
      "neu": 6146,
      "Ġnede": 6147,
      "Ġpreven": 6148,
      "Ġdue": 6149,
      "Ġatle": 6150,
      "Ġkomunisti": 6151,
      "Ġciele": 6152,
      "Ġzam": 6153,
      "Ġvysla": 6154,
      "Ġhil": 6155,
      "Ġseda": 6156,
      "Ġstredny": 6157,
      "Ġpripravene": 6158,
      "Ġnerozu": 6159,
      "vole": 6160,
      "Ġbanskobystri": 6161,
      "Ġurobila": 6162,
      "Ġdozor": 6163,
      "Ġemo": 6164,
      "skok": 6165,
      "Ġmilitan": 6166,
      "Ġhnutia": 6167,
      "Ġcene": 6168,
      "Ġmarek": 6169,
      "Ġpies": 6170,
      "Ġpriemerna": 6171,
      "nny": 6172,
      "Ġbyty": 6173,
      "Ġdvere": 6174,
      "Ġposkytuje": 6175,
      "Ġodbora": 6176,
      "zdn": 6177,
      "Ġtha": 6178,
      "Ġodstup": 6179,
      "Ġnezmysel": 6180,
      "Ġukrajinsky": 6181,
      "zou": 6182,
      "Ġdoty": 6183,
      "Ġgal": 6184,
      "tany": 6185,
      "anska": 6186,
      "Ġdopredu": 6187,
      "Ġmigra": 6188,
      "Ġadresu": 6189,
      "Ġfanta": 6190,
      "Ġpravidiel": 6191,
      "Ġslobodu": 6192,
      "hats": 6193,
      "Ġreaguje": 6194,
      "Ġvystav": 6195,
      "Ġdocha": 6196,
      "soby": 6197,
      "Ġvies": 6198,
      "pustila": 6199,
      "Ġtaliansku": 6200,
      "tnost": 6201,
      "Ġvta": 6202,
      "Ġpopoludni": 6203,
      "Ġmene": 6204,
      "Ġvystup": 6205,
      "vov": 6206,
      "chla": 6207,
      "Ġini": 6208,
      "Ġchodit": 6209,
      "jdete": 6210,
      "ers": 6211,
      "Ġspozna": 6212,
      "Ġskvely": 6213,
      "Ġislamske": 6214,
      "ampio": 6215,
      "Ġsamostatne": 6216,
      "Ġade": 6217,
      "Ġterajs": 6218,
      "entny": 6219,
      "Ġdiela": 6220,
      "Ġdivadlo": 6221,
      "Ġgoogle": 6222,
      "rovane": 6223,
      "Ġbrz": 6224,
      "Ġkusov": 6225,
      "Ġobvinili": 6226,
      "Ġreagoval": 6227,
      "Ġnespokoj": 6228,
      "Ġdaniel": 6229,
      "cemu": 6230,
      "Ġsexi": 6231,
      "Ġfili": 6232,
      "Ġcivi": 6233,
      "Ġhumani": 6234,
      "Ġvysoka": 6235,
      "Ġdoprava": 6236,
      "Ġdozve": 6237,
      "Ġturnaji": 6238,
      "ben": 6239,
      "rovo": 6240,
      "Ġvlaky": 6241,
      "Ġduel": 6242,
      "Ġkolko": 6243,
      "Ġobjekti": 6244,
      "Ġvicepre": 6245,
      "Ġodvtedy": 6246,
      "Ġvynikaju": 6247,
      "Ġmedi": 6248,
      "razny": 6249,
      "Ġhraju": 6250,
      "Ġdlz": 6251,
      "Ġmerke": 6252,
      "tokov": 6253,
      "mus": 6254,
      "Ġruc": 6255,
      "Ġosca": 6256,
      "Ġnemusia": 6257,
      "Ġschopny": 6258,
      "Ġazy": 6259,
      "Ġmol": 6260,
      "edzi": 6261,
      "Ġji": 6262,
      "Ġprepu": 6263,
      "Ġodlis": 6264,
      "Ġzemi": 6265,
      "Ġotvorili": 6266,
      "Ġstanovisko": 6267,
      "bl": 6268,
      "rani": 6269,
      "rade": 6270,
      "Ġnefu": 6271,
      "Ġpredvole": 6272,
      "Ġprodukt": 6273,
      "Ġfutbalisti": 6274,
      "Ġukrajinu": 6275,
      "Ġkonkurenc": 6276,
      "zp": 6277,
      "Ġmafia": 6278,
      "Ġhams": 6279,
      "Ġvracia": 6280,
      "Ġzmenil": 6281,
      "Ġfutbalovej": 6282,
      "dovy": 6283,
      "zvy": 6284,
      "Ġvyzna": 6285,
      "Ġstr": 6286,
      "Ġniekomu": 6287,
      "Ġstar": 6288,
      "Ġspie": 6289,
      "Ġvti": 6290,
      "Ġnaci": 6291,
      "Ġveli": 6292,
      "hrade": 6293,
      "Ġfalos": 6294,
      "Ġmenit": 6295,
      "dnutia": 6296,
      "Ġprogramov": 6297,
      "bene": 6298,
      "tsky": 6299,
      "Ġvopred": 6300,
      "Ġchrb": 6301,
      "Ġneurobi": 6302,
      "Ġprispie": 6303,
      "Ġmeny": 6304,
      "Ġpristu": 6305,
      "Ġnajsta": 6306,
      "Ġmega": 6307,
      "Ġvaruje": 6308,
      "Ġjen": 6309,
      "Ġrobil": 6310,
      "Ġspomedzi": 6311,
      "tkou": 6312,
      "Ġinu": 6313,
      "Ġmuzi": 6314,
      "onal": 6315,
      "Ġturecko": 6316,
      "vnosti": 6317,
      "Ġala": 6318,
      "Ġvypu": 6319,
      "tych": 6320,
      "mentu": 6321,
      "lovane": 6322,
      "Ġinterie": 6323,
      "Ġsektora": 6324,
      "Ġpasa": 6325,
      "Ġpom": 6326,
      "Ġvyrovn": 6327,
      "Ġodloz": 6328,
      "Ġdlhopisov": 6329,
      "Ġnepomo": 6330,
      "Ġzodpovedny": 6331,
      "Ġhomose": 6332,
      "Ġpoch": 6333,
      "pou": 6334,
      "pozi": 6335,
      "Ġpodmienkach": 6336,
      "Ġjozefa": 6337,
      "Ġobchodnej": 6338,
      "Ġzs": 6339,
      "Ġzvu": 6340,
      "robne": 6341,
      "Ġnea": 6342,
      "Ġvybera": 6343,
      "Ġeurope": 6344,
      "Ġlode": 6345,
      "Ġnechcem": 6346,
      "Ġvzniknu": 6347,
      "kala": 6348,
      "Ġfinancie": 6349,
      "Ġlieky": 6350,
      "Ġmyslia": 6351,
      "Ġtovar": 6352,
      "itia": 6353,
      "Ġnoha": 6354,
      "Ġaustralian": 6355,
      "Ġpozosta": 6356,
      "Ġharabin": 6357,
      "evi": 6358,
      "Ġsing": 6359,
      "Ġpenta": 6360,
      "Ġnan": 6361,
      "Ġhm": 6362,
      "Ġpotrebu": 6363,
      "Ġmiestneho": 6364,
      "Ġpriniesol": 6365,
      "jske": 6366,
      "Ġara": 6367,
      "vodn": 6368,
      "Ġfit": 6369,
      "stave": 6370,
      "Ġnajry": 6371,
      "chol": 6372,
      "konni": 6373,
      "Ġdiskusii": 6374,
      "Ġautori": 6375,
      "Ġpokuty": 6376,
      "Ġatrakti": 6377,
      "veny": 6378,
      "Ġem": 6379,
      "Ġzopa": 6380,
      "Ġprostredi": 6381,
      "Ġmajster": 6382,
      "Ġspokojny": 6383,
      "ii": 6384,
      "Ġpekny": 6385,
      "Ġmanipu": 6386,
      "manie": 6387,
      "Ġplu": 6388,
      "Ġzaoberat": 6389,
      "Ġteploty": 6390,
      "Ġzavedenie": 6391,
      "uli": 6392,
      "Ġkve": 6393,
      "Ġvyvi": 6394,
      "Ġfajc": 6395,
      "ahuje": 6396,
      "Ġreklamou": 6397,
      "Ġturecka": 6398,
      "Ġecb": 6399,
      "dovani": 6400,
      "iarsky": 6401,
      "Ġsnez": 6402,
      "finan": 6403,
      "zoval": 6404,
      "Ġzako": 6405,
      "Ġvypi": 6406,
      "Ġmexi": 6407,
      "Ġkhl": 6408,
      "Ġdopo": 6409,
      "ika": 6410,
      "ric": 6411,
      "Ġnovinky": 6412,
      "Ġigor": 6413,
      "trz": 6414,
      "Ġvydrz": 6415,
      "kovani": 6416,
      "Ġhori": 6417,
      "hala": 6418,
      "Ġdikta": 6419,
      "Ġrusov": 6420,
      "Ġfaktu": 6421,
      "Ġzverejnila": 6422,
      "one": 6423,
      "yer": 6424,
      "Ġvyhl": 6425,
      "lizovany": 6426,
      "Ġbojuje": 6427,
      "Ġora": 6428,
      "hlasu": 6429,
      "Ġprodukty": 6430,
      "Ġprocesu": 6431,
      "Ġpamiat": 6432,
      "Ġzrazu": 6433,
      "Ġpoze": 6434,
      "vahy": 6435,
      "Ġdopla": 6436,
      "rovani": 6437,
      "Ġrozpa": 6438,
      "konny": 6439,
      "Ġmestska": 6440,
      "Ġevaku": 6441,
      "Ġsou": 6442,
      "Ġvydal": 6443,
      "erna": 6444,
      "Ġvodu": 6445,
      "chodi": 6446,
      "hac": 6447,
      "Ġjedina": 6448,
      "trukcia": 6449,
      "Ġdodatoc": 6450,
      "Ġkvalitne": 6451,
      "Ġnepriatel": 6452,
      "chnu": 6453,
      "voji": 6454,
      "chodok": 6455,
      "Ġvac": 6456,
      "Ġwal": 6457,
      "nimkou": 6458,
      "Ġlikvida": 6459,
      "Ġspi": 6460,
      "Ġnemen": 6461,
      "Ġvacs": 6462,
      "Ġpodnikatelia": 6463,
      "Ġwashington": 6464,
      "Ġagresi": 6465,
      "Ġpochy": 6466,
      "Ġkoncent": 6467,
      "Ġkonkurencie": 6468,
      "dze": 6469,
      "toz": 6470,
      "Ġcm": 6471,
      "Ġkedze": 6472,
      "Ġmedve": 6473,
      "Ġdomnie": 6474,
      "Ġdohode": 6475,
      "Ġmicroso": 6476,
      "Ġmni": 6477,
      "Ġstavba": 6478,
      "Ġbmw": 6479,
      "vca": 6480,
      "Ġfotografi": 6481,
      "Ġpriemerny": 6482,
      "Ġnedovo": 6483,
      "Ġprovin": 6484,
      "Ġnajsil": 6485,
      "soli": 6486,
      "Ġbankove": 6487,
      "Ġryba": 6488,
      "Ġzvierat": 6489,
      "Ġznie": 6490,
      "Ġama": 6491,
      "Ġnakup": 6492,
      "listov": 6493,
      "Ġclan": 6494,
      "tima": 6495,
      "Ġpeti": 6496,
      "ling": 6497,
      "Ġobrazov": 6498,
      "Ġdivadla": 6499,
      "Ġpovolenie": 6500,
      "reag": 6501,
      "Ġegypt": 6502,
      "Ġkonzervati": 6503,
      "Ġnene": 6504,
      "Ġdoruc": 6505,
      "dis": 6506,
      "doroc": 6507,
      "Ġtovaru": 6508,
      "ya": 6509,
      "Ġzli": 6510,
      "doby": 6511,
      "Ġaero": 6512,
      "zli": 6513,
      "mel": 6514,
      "Ġivana": 6515,
      "Ġochrana": 6516,
      "Ġtrnave": 6517,
      "Ġzaplat": 6518,
      "Ġvyma": 6519,
      "ivotny": 6520,
      "rusd": 6521,
      "Ġgala": 6522,
      "Ġdovolit": 6523,
      "Ġinvestovat": 6524,
      "Ġmyslel": 6525,
      "Ġseni": 6526,
      "Ġarab": 6527,
      "Ġzaruc": 6528,
      "Ġprepust": 6529,
      "Ġvyuc": 6530,
      "Ġfron": 6531,
      "Ġhlave": 6532,
      "Ġdomin": 6533,
      "akal": 6534,
      "Ġpredstavil": 6535,
      "gri": 6536,
      "tost": 6537,
      "mali": 6538,
      "Ġtechnicke": 6539,
      "Ġkarty": 6540,
      "trajk": 6541,
      "Ġobrat": 6542,
      "Ġkrajsky": 6543,
      "Ġopakovane": 6544,
      "lizmus": 6545,
      "Ġdopa": 6546,
      "vera": 6547,
      "verne": 6548,
      "boji": 6549,
      "asy": 6550,
      "Ġstratil": 6551,
      "kolske": 6552,
      "hnutie": 6553,
      "Ġnevyhnutne": 6554,
      "Ġodvody": 6555,
      "Ġtera": 6556,
      "Ġzverejn": 6557,
      "Ġpartner": 6558,
      "Ġdiag": 6559,
      "Ġminuloroc": 6560,
      "Ġmaga": 6561,
      "Ġvek": 6562,
      "Ġdaz": 6563,
      "Ġhlavou": 6564,
      "Ġmier": 6565,
      "percent": 6566,
      "Ġpolovice": 6567,
      "tinu": 6568,
      "znej": 6569,
      "zbu": 6570,
      "liny": 6571,
      "covej": 6572,
      "Ġoblastiach": 6573,
      "adov": 6574,
      "Ġed": 6575,
      "novo": 6576,
      "Ġnija": 6577,
      "ajny": 6578,
      "Ġuvedene": 6579,
      "Ġcirkev": 6580,
      "Ġautomaticky": 6581,
      "Ġnemohli": 6582,
      "fekt": 6583,
      "promi": 6584,
      "Ġpneu": 6585,
      "Ġvyhodno": 6586,
      "Ġjeda": 6587,
      "Ġmobil": 6588,
      "Ġbole": 6589,
      "tovosti": 6590,
      "Ġministrov": 6591,
      "ameri": 6592,
      "Ġsky": 6593,
      "Ġposlu": 6594,
      "kora": 6595,
      "Ġtota": 6596,
      "Ġhel": 6597,
      "Ġmiere": 6598,
      "Ġtrvat": 6599,
      "lenske": 6600,
      "Ġministri": 6601,
      "bery": 6602,
      "portovy": 6603,
      "Ġmimochodom": 6604,
      "Ġzemetrasenie": 6605,
      "Ġnajstars": 6606,
      "Ġtal": 6607,
      "Ġfides": 6608,
      "Ġpredsedom": 6609,
      "Ġpomen": 6610,
      "Ġzadlz": 6611,
      "pekt": 6612,
      "Ġkontrover": 6613,
      "Ġruku": 6614,
      "Ġinterpre": 6615,
      "Ġpoby": 6616,
      "Ġposto": 6617,
      "jet": 6618,
      "anoch": 6619,
      "Ġsmerusd": 6620,
      "Ġpresi": 6621,
      "etrenie": 6622,
      "etrova": 6623,
      "akane": 6624,
      "Ġalz": 6625,
      "Ġmotorovy": 6626,
      "Ġpodujatie": 6627,
      "sene": 6628,
      "Ġmanu": 6629,
      "Ġhral": 6630,
      "Ġsamotne": 6631,
      "nedz": 6632,
      "Ġplyna": 6633,
      "cy": 6634,
      "Ġzbo": 6635,
      "nikov": 6636,
      "zili": 6637,
      "Ġpravo": 6638,
      "Ġdedic": 6639,
      "Ġvaj": 6640,
      "dzke": 6641,
      "tvrte": 6642,
      "kte": 6643,
      "zen": 6644,
      "tevu": 6645,
      "istov": 6646,
      "Ġzdvi": 6647,
      "Ġzostat": 6648,
      "Ġzlate": 6649,
      "Ġmama": 6650,
      "mac": 6651,
      "Ġbritska": 6652,
      "Ġpohod": 6653,
      "nosy": 6654,
      "Ġhne": 6655,
      "Ġnebudem": 6656,
      "Ġinternetovy": 6657,
      "Ġbojovni": 6658,
      "Ġder": 6659,
      "Ġoran": 6660,
      "Ġbr": 6661,
      "kar": 6662,
      "Ġkoord": 6663,
      "Ġturne": 6664,
      "Ġkuba": 6665,
      "Ġvyjadrit": 6666,
      "Ġnajsilnejs": 6667,
      "bnom": 6668,
      "Ġpodat": 6669,
      "tum": 6670,
      "Ġamerickom": 6671,
      "Ġsnaha": 6672,
      "Ġobvineny": 6673,
      "Ġdokument": 6674,
      "Ġkonferencie": 6675,
      "Ġohro": 6676,
      "Ġpredpoklad": 6677,
      "Ġdialo": 6678,
      "Ġodovzda": 6679,
      "Ġoddelenia": 6680,
      "Ġuplatn": 6681,
      "Ġkw": 6682,
      "erny": 6683,
      "Ġbebla": 6684,
      "silie": 6685,
      "Ġzaosta": 6686,
      "Ġjedinec": 6687,
      "Ġodvod": 6688,
      "Ġzdrz": 6689,
      "Ġpotrebny": 6690,
      "Ġhokejovy": 6691,
      "rovala": 6692,
      "Ġmiestnych": 6693,
      "Ġbizni": 6694,
      "Ġfacebook": 6695,
      "Ġelektronicky": 6696,
      "Ġdopln": 6697,
      "vkou": 6698,
      "anmi": 6699,
      "Ġpraxi": 6700,
      "Ġpest": 6701,
      "niek": 6702,
      "Ġsocialisti": 6703,
      "Ġzveda": 6704,
      "Ġkauzy": 6705,
      "Ġzaznamenal": 6706,
      "bier": 6707,
      "stitu": 6708,
      "Ġhrali": 6709,
      "Ġpartnera": 6710,
      "Ġmly": 6711,
      "cio": 6712,
      "merom": 6713,
      "Ġstreta": 6714,
      "rodnom": 6715,
      "Ġsektor": 6716,
      "Ġliptov": 6717,
      "bro": 6718,
      "dry": 6719,
      "Ġnevin": 6720,
      "Ġhostia": 6721,
      "icku": 6722,
      "Ġporiadok": 6723,
      "Ġigno": 6724,
      "coval": 6725,
      "Ġuhra": 6726,
      "Ġtatran": 6727,
      "Ġlega": 6728,
      "Ġsvedom": 6729,
      "Ġschopnost": 6730,
      "Ġpriniest": 6731,
      "Ġnet": 6732,
      "Ġvysky": 6733,
      "Ġprof": 6734,
      "niesol": 6735,
      "Ġgara": 6736,
      "Ġapple": 6737,
      "Ġvysokos": 6738,
      "Ġhoro": 6739,
      "Ġspoji": 6740,
      "Ġkapi": 6741,
      "Ġdanka": 6742,
      "sobila": 6743,
      "Ġangeles": 6744,
      "Ġhora": 6745,
      "Ġhala": 6746,
      "Ġtretiny": 6747,
      "Ġmel": 6748,
      "iavat": 6749,
      "Ġleto": 6750,
      "Ġoptimi": 6751,
      "zkych": 6752,
      "ndu": 6753,
      "radov": 6754,
      "Ġvyrob": 6755,
      "Ġprvou": 6756,
      "tnym": 6757,
      "Ġnovelu": 6758,
      "Ġspojenie": 6759,
      "chli": 6760,
      "anske": 6761,
      "Ġjez": 6762,
      "cieho": 6763,
      "Ġstrata": 6764,
      "Ġnikomu": 6765,
      "Ġnejako": 6766,
      "Ġvstupe": 6767,
      "Ġsestry": 6768,
      "rode": 6769,
      "Ġportfo": 6770,
      "rovom": 6771,
      "Ġchva": 6772,
      "Ġmzda": 6773,
      "Ġdefici": 6774,
      "Ġvw": 6775,
      "Ġvyu": 6776,
      "Ġnajne": 6777,
      "rgo": 6778,
      "Ġnejaka": 6779,
      "razila": 6780,
      "Ġnevedel": 6781,
      "Ġsrdce": 6782,
      "tyria": 6783,
      "Ġficovi": 6784,
      "Ġsvetova": 6785,
      "esi": 6786,
      "lum": 6787,
      "zac": 6788,
      "Ġrozhovor": 6789,
      "Ġstrediska": 6790,
      "Ġparkovi": 6791,
      "Ġnemalo": 6792,
      "Ġzveren": 6793,
      "Ġuzatva": 6794,
      "Ġnechat": 6795,
      "chi": 6796,
      "para": 6797,
      "bytok": 6798,
      "Ġruchu": 6799,
      "hnuti": 6800,
      "ahc": 6801,
      "Ġvznikol": 6802,
      "Ġup": 6803,
      "Ġfotky": 6804,
      "Ġbojuju": 6805,
      "sl": 6806,
      "Ġnarus": 6807,
      "loha": 6808,
      "Ġfn": 6809,
      "Ġras": 6810,
      "Ġsympa": 6811,
      "Ġpolitik": 6812,
      "uts": 6813,
      "znamnejs": 6814,
      "Ġfyzicky": 6815,
      "Ġvydie": 6816,
      "nane": 6817,
      "noho": 6818,
      "vizi": 6819,
      "Ġpartnerov": 6820,
      "Ġberie": 6821,
      "Ġzaj": 6822,
      "Ġvodou": 6823,
      "Ġtretieho": 6824,
      "Ġpozemok": 6825,
      "Ġsmera": 6826,
      "Ġzobrazit": 6827,
      "Ġfederer": 6828,
      "Ġkia": 6829,
      "inne": 6830,
      "Ġvypove": 6831,
      "Ġpripoj": 6832,
      "Ġvlak": 6833,
      "Ġdvadsia": 6834,
      "Ġnezamestnany": 6835,
      "Ġhrube": 6836,
      "Ġozbrojeny": 6837,
      "Ġnecely": 6838,
      "mrt": 6839,
      "Ġzrazil": 6840,
      "tos": 6841,
      "Ġparlamentne": 6842,
      "estna": 6843,
      "Ġvytvorenie": 6844,
      "Ġjazyk": 6845,
      "Ġimuni": 6846,
      "chest": 6847,
      "Ġhlia": 6848,
      "doba": 6849,
      "Ġopatr": 6850,
      "Ġbudova": 6851,
      "try": 6852,
      "mito": 6853,
      "ciam": 6854,
      "Ġjusti": 6855,
      "Ġzdravy": 6856,
      "Ġekonomickej": 6857,
      "ez": 6858,
      "Ġone": 6859,
      "Ġope": 6860,
      "aniach": 6861,
      "Ġzlode": 6862,
      "Ġpoplatok": 6863,
      "Ġsho": 6864,
      "tevy": 6865,
      "Ġdon": 6866,
      "Ġrozda": 6867,
      "ciet": 6868,
      "ston": 6869,
      "Ġnezauji": 6870,
      "Ġexisten": 6871,
      "jho": 6872,
      "stupu": 6873,
      "razn": 6874,
      "Ġdavid": 6875,
      "Ġpomohol": 6876,
      "tingu": 6877,
      "Ġstupen": 6878,
      "up": 6879,
      "Ġzde": 6880,
      "Ġks": 6881,
      "Ġbron": 6882,
      "Ġvatika": 6883,
      "chat": 6884,
      "Ġmoderniza": 6885,
      "Ġcharakter": 6886,
      "mka": 6887,
      "Ġnesti": 6888,
      "Ġprimera": 6889,
      "Ġradu": 6890,
      "Ġlinky": 6891,
      "Ġvznika": 6892,
      "Ġzodpovednosti": 6893,
      "Ġprehrali": 6894,
      "wood": 6895,
      "Ġpodal": 6896,
      "noz": 6897,
      "burgu": 6898,
      "selu": 6899,
      "vlast": 6900,
      "Ġprezenta": 6901,
      "Ġsolidari": 6902,
      "dvi": 6903,
      "Ġneplati": 6904,
      "Ġpodrob": 6905,
      "Ġinformuje": 6906,
      "plyvni": 6907,
      "Ġprejav": 6908,
      "erveny": 6909,
      "Ġseparati": 6910,
      "Ġuliciach": 6911,
      "Ġpartnerom": 6912,
      "Ġgeo": 6913,
      "Ġzatkli": 6914,
      "Ġzlu": 6915,
      "Ġpav": 6916,
      "Ġchciet": 6917,
      "vomoci": 6918,
      "Ġdlhoroc": 6919,
      "zemne": 6920,
      "Ġposledna": 6921,
      "Ġpodnikania": 6922,
      "Ġosud": 6923,
      "Ġpravdepodobnost": 6924,
      "Ġac": 6925,
      "Ġzabil": 6926,
      "elle": 6927,
      "Ġchica": 6928,
      "Ġbankov": 6929,
      "Ġvysoku": 6930,
      "Ġzasadnuti": 6931,
      "Ġdlhodobe": 6932,
      "Ġargument": 6933,
      "Ġzry": 6934,
      "Ġpole": 6935,
      "Ġvyzerat": 6936,
      "Ġfed": 6937,
      "Ġwor": 6938,
      "Ġpoznamenal": 6939,
      "Ġzvola": 6940,
      "Ġneba": 6941,
      "Ġib": 6942,
      "Ġdelega": 6943,
      "astny": 6944,
      "Ġliekov": 6945,
      "Ġzostali": 6946,
      "Ġmichael": 6947,
      "Ġobranca": 6948,
      "Ġsiedmich": 6949,
      "prie": 6950,
      "Ġsel": 6951,
      "Ġpochva": 6952,
      "velo": 6953,
      "Ġvam": 6954,
      "Ġvravi": 6955,
      "Ġvytvorili": 6956,
      "Ġkrajinami": 6957,
      "Ġkotlebov": 6958,
      "Ġkmh": 6959,
      "Ġzavraz": 6960,
      "irs": 6961,
      "entuje": 6962,
      "don": 6963,
      "Ġpraha": 6964,
      "Ġriadne": 6965,
      "Ġkomuna": 6966,
      "Ġrespondentov": 6967,
      "Ġbolesti": 6968,
      "done": 6969,
      "tys": 6970,
      "nostiach": 6971,
      "Ġpolroku": 6972,
      "Ġmaximum": 6973,
      "Ġpacient": 6974,
      "Ġmoskve": 6975,
      "kovia": 6976,
      "Ġnezvla": 6977,
      "Ġmlada": 6978,
      "Ġrovnakej": 6979,
      "Ġpreteka": 6980,
      "Ġstroja": 6981,
      "Ġvynas": 6982,
      "Ġvzdialen": 6983,
      "sten": 6984,
      "Ġomy": 6985,
      "Ġbani": 6986,
      "Ġprejst": 6987,
      "Ġpripade": 6988,
      "cel": 6989,
      "Ġvolan": 6990,
      "etruju": 6991,
      "Ġakvizi": 6992,
      "Ġpriemerne": 6993,
      "Ġtros": 6994,
      "dsed": 6995,
      "Ġtvrdil": 6996,
      "Ġzvolen": 6997,
      "Ġmf": 6998,
      "Ġzopak": 6999,
      "Ġintegra": 7000,
      "Ġkandidatu": 7001,
      "Ġzariadenie": 7002,
      "Ġdovolenku": 7003,
      "Ġobdi": 7004,
      "Ġseg": 7005,
      "Ġwebnovinysk": 7006,
      "knut": 7007,
      "Ġsadzieb": 7008,
      "Ġbesede": 7009,
      "Ġmagazi": 7010,
      "udu": 7011,
      "Ġpobyt": 7012,
      "tatuje": 7013,
      "dox": 7014,
      "Ġstarom": 7015,
      "Ġfire": 7016,
      "Ġnevyuz": 7017,
      "Ġvozidlo": 7018,
      "Ġprijal": 7019,
      "Ġteplota": 7020,
      "ivnostni": 7021,
      "kin": 7022,
      "tory": 7023,
      "Ġuho": 7024,
      "Ġgen": 7025,
      "Ġstretol": 7026,
      "predsed": 7027,
      "Ġpozemky": 7028,
      "Ġsal": 7029,
      "Ġremi": 7030,
      "Ġnezvest": 7031,
      "Ġspomal": 7032,
      "Ġdosahuje": 7033,
      "cne": 7034,
      "Ġkrajske": 7035,
      "Ġsudca": 7036,
      "Ġkatari": 7037,
      "Ġzistit": 7038,
      "Ġtrnava": 7039,
      "Ġdeji": 7040,
      "Ġpoplatkov": 7041,
      "enost": 7042,
      "miti": 7043,
      "Ġles": 7044,
      "Ġkvalita": 7045,
      "viezli": 7046,
      "zby": 7047,
      "Ġury": 7048,
      "Ġmara": 7049,
      "Ġrece": 7050,
      "Ġbanska": 7051,
      "Ġmenom": 7052,
      "Ġpolc": 7053,
      "Ġturnaj": 7054,
      "Ġnehovori": 7055,
      "Ġpreprav": 7056,
      "Ġdetsky": 7057,
      "Ġjednoduchy": 7058,
      "Ġposlednu": 7059,
      "Ġgymna": 7060,
      "Ġzomrela": 7061,
      "skla": 7062,
      "Ġnevra": 7063,
      "Ġmori": 7064,
      "Ġvysie": 7065,
      "nicka": 7066,
      "Ġhranici": 7067,
      "kazom": 7068,
      "Ġlietadiel": 7069,
      "Ġniekdajs": 7070,
      "Ġkov": 7071,
      "lera": 7072,
      "Ġministerka": 7073,
      "Ġduchov": 7074,
      "Ġfilme": 7075,
      "Ġvydanie": 7076,
      "dko": 7077,
      "kodu": 7078,
      "Ġrozkra": 7079,
      "Ġtable": 7080,
      "Ġkonsoli": 7081,
      "Ġjas": 7082,
      "ave": 7083,
      "Ġpena": 7084,
      "stina": 7085,
      "Ġvonka": 7086,
      "Ġklube": 7087,
      "Ġbudove": 7088,
      "Ġstimu": 7089,
      "Ġvybrali": 7090,
      "Ġfilmovy": 7091,
      "Ġcyklisti": 7092,
      "zove": 7093,
      "iara": 7094,
      "ickom": 7095,
      "denne": 7096,
      "Ġrozmy": 7097,
      "stupe": 7098,
      "Ġjuhu": 7099,
      "Ġzmluve": 7100,
      "okuju": 7101,
      "Ġanalytikov": 7102,
      "Ġvyboj": 7103,
      "Ġfres": 7104,
      "rovania": 7105,
      "Ġmilos": 7106,
      "Ġtestov": 7107,
      "Ġmozu": 7108,
      "Ġproduktu": 7109,
      "Ġdrahs": 7110,
      "Ġmajitelia": 7111,
      "Ġspu": 7112,
      "nach": 7113,
      "lohe": 7114,
      "pos": 7115,
      "Ġtip": 7116,
      "Ġchory": 7117,
      "Ġjose": 7118,
      "razit": 7119,
      "Ġmiliarda": 7120,
      "Ġtaliansky": 7121,
      "Ġrekordny": 7122,
      "Ġholly": 7123,
      "Ġsag": 7124,
      "Ġmasa": 7125,
      "kolvek": 7126,
      "Ġfunguju": 7127,
      "Ġocenenie": 7128,
      "urc": 7129,
      "Ġpoto": 7130,
      "lek": 7131,
      "Ġzavia": 7132,
      "mavosti": 7133,
      "sobuje": 7134,
      "Ġdebu": 7135,
      "azstva": 7136,
      "Ġspy": 7137,
      "Ġnespl": 7138,
      "Ġpolicajna": 7139,
      "Ġfavori": 7140,
      "fom": 7141,
      "Ġodra": 7142,
      "Ġakcept": 7143,
      "hrada": 7144,
      "Ġdominan": 7145,
      "strel": 7146,
      "Ġklam": 7147,
      "Ġvysvetlit": 7148,
      "Ġpresadit": 7149,
      "Ġtajne": 7150,
      "Ġzapnu": 7151,
      "sadne": 7152,
      "niesli": 7153,
      "Ġdovoz": 7154,
      "ianske": 7155,
      "Ġinternetovej": 7156,
      "Ġinternati": 7157,
      "Ġpakist": 7158,
      "arskom": 7159,
      "krati": 7160,
      "Ġslota": 7161,
      "Ġmajet": 7162,
      "ujmy": 7163,
      "Ġvydavatel": 7164,
      "lta": 7165,
      "skov": 7166,
      "Ġmotori": 7167,
      "Ġzbie": 7168,
      "Ġnetus": 7169,
      "zorov": 7170,
      "Ġpovedali": 7171,
      "maticke": 7172,
      "rty": 7173,
      "nek": 7174,
      "Ġun": 7175,
      "Ġpridat": 7176,
      "Ġodku": 7177,
      "Ġodchode": 7178,
      "denej": 7179,
      "Ġvlaj": 7180,
      "sobny": 7181,
      "Ġart": 7182,
      "lilo": 7183,
      "lety": 7184,
      "vami": 7185,
      "star": 7186,
      "Ġtaxi": 7187,
      "Ġznamen": 7188,
      "Ġpoliticka": 7189,
      "ilu": 7190,
      "Ġhal": 7191,
      "Ġkoc": 7192,
      "razove": 7193,
      "Ġbruselu": 7194,
      "nkc": 7195,
      "Ġkontakt": 7196,
      "Ġpriznanie": 7197,
      "Ġnakol": 7198,
      "rodnu": 7199,
      "Ġnepoc": 7200,
      "zemny": 7201,
      "beny": 7202,
      "vene": 7203,
      "Ġmasi": 7204,
      "Ġprosi": 7205,
      "Ġpau": 7206,
      "Ġniet": 7207,
      "mestie": 7208,
      "Ġtrati": 7209,
      "Ġpiaty": 7210,
      "Ġfilmy": 7211,
      "Ġbritskej": 7212,
      "Ġnedostatoc": 7213,
      "Ġreakcii": 7214,
      "Ġzaja": 7215,
      "tas": 7216,
      "Ġhier": 7217,
      "Ġministrom": 7218,
      "Ġvyhrat": 7219,
      "Ġfunkciona": 7220,
      "Ġrealiz": 7221,
      "Ġdiplomacie": 7222,
      "Ġzaviest": 7223,
      "chly": 7224,
      "Ġprimiti": 7225,
      "Ġrezi": 7226,
      "Ġspochyb": 7227,
      "Ġprogramy": 7228,
      "Ġschopnosti": 7229,
      "Ġfinancovania": 7230,
      "inova": 7231,
      "Ġdona": 7232,
      "Ġhrus": 7233,
      "silo": 7234,
      "Ġrespekti": 7235,
      "Ġzdrave": 7236,
      "Ġhrozia": 7237,
      "vejs": 7238,
      "Ġkalku": 7239,
      "Ġdevelo": 7240,
      "Ġsvedc": 7241,
      "Ġcelzia": 7242,
      "chodkove": 7243,
      "Ġtragic": 7244,
      "trukcie": 7245,
      "Ġklienti": 7246,
      "Ġchlapec": 7247,
      "Ġskvelo": 7248,
      "Ġradsej": 7249,
      "Ġspisovatel": 7250,
      "Ġzahr": 7251,
      "Ġfnm": 7252,
      "bak": 7253,
      "Ġpodpredsed": 7254,
      "Ġpredna": 7255,
      "Ġstaci": 7256,
      "Ġsestra": 7257,
      "Ġstretli": 7258,
      "delni": 7259,
      "Ġnemeckom": 7260,
      "Ġjazdit": 7261,
      "Ġodvolanie": 7262,
      "Ġkalifor": 7263,
      "Ġinternational": 7264,
      "ame": 7265,
      "Ġhas": 7266,
      "mona": 7267,
      "Ġdata": 7268,
      "Ġrozhodovat": 7269,
      "Ġpovinny": 7270,
      "Ġosobnost": 7271,
      "Ġviaceri": 7272,
      "Ġposkytovatel": 7273,
      "zkov": 7274,
      "Ġvsi": 7275,
      "Ġaro": 7276,
      "licky": 7277,
      "Ġobid": 7278,
      "muju": 7279,
      "Ġstarej": 7280,
      "Ġpodporuju": 7281,
      "Ġgale": 7282,
      "Ġpripravili": 7283,
      "Ġprehral": 7284,
      "Ġpokojne": 7285,
      "Ġprezradil": 7286,
      "novat": 7287,
      "Ġrozhlas": 7288,
      "Ġskvele": 7289,
      "Ġzjavne": 7290,
      "Ġakura": 7291,
      "riou": 7292,
      "Ġzabili": 7293,
      "Ġkoza": 7294,
      "Ġtag": 7295,
      "Ġjaroslav": 7296,
      "Ġjoj": 7297,
      "Ġtechniky": 7298,
      "Ġutrpe": 7299,
      "Ġvyh": 7300,
      "Ġrasi": 7301,
      "Ġhlasy": 7302,
      "Ġatenta": 7303,
      "Ġcestovny": 7304,
      "Ġmadrid": 7305,
      "noval": 7306,
      "tovni": 7307,
      "Ġlotys": 7308,
      "torka": 7309,
      "Ġlud": 7310,
      "Ġemail": 7311,
      "Ġrozsudok": 7312,
      "eky": 7313,
      "Ġlige": 7314,
      "Ġprv": 7315,
      "Ġspravit": 7316,
      "Ġnovou": 7317,
      "Ġsnahe": 7318,
      "Ġkniha": 7319,
      "Ġvonkajs": 7320,
      "covali": 7321,
      "osi": 7322,
      "Ġvene": 7323,
      "Ġprodukcia": 7324,
      "Ġsevernej": 7325,
      "Ġtakejto": 7326,
      "nci": 7327,
      "vnik": 7328,
      "Ġzorgani": 7329,
      "Ġtebe": 7330,
      "Ġzisky": 7331,
      "Ġkvalifi": 7332,
      "ianskej": 7333,
      "Ġprekvapenie": 7334,
      "Ġnaroden": 7335,
      "Ġnepriazni": 7336,
      "Ġpredmetom": 7337,
      "tlac": 7338,
      "kokra": 7339,
      "Ġpodne": 7340,
      "Ġbos": 7341,
      "Ġpredstavuju": 7342,
      "Ġsz": 7343,
      "hoda": 7344,
      "pac": 7345,
      "Ġbela": 7346,
      "Ġklientom": 7347,
      "Ġnemocnica": 7348,
      "Ġmestom": 7349,
      "Ġbrex": 7350,
      "Ġkomodi": 7351,
      "venie": 7352,
      "Ġtel": 7353,
      "ant": 7354,
      "Ġsaud": 7355,
      "morskej": 7356,
      "chodky": 7357,
      "Ġzmenila": 7358,
      "Ġznepo": 7359,
      "Ġmojej": 7360,
      "Ġgeorge": 7361,
      "mala": 7362,
      "suju": 7363,
      "Ġpostavili": 7364,
      "Ġjaponska": 7365,
      "mku": 7366,
      "Ġzani": 7367,
      "Ġzastup": 7368,
      "Ġexport": 7369,
      "Ġtrat": 7370,
      "Ġnechal": 7371,
      "Ġjazyka": 7372,
      "Ġturecku": 7373,
      "Ġcharakteri": 7374,
      "Ġokolie": 7375,
      "Ġzaznamenala": 7376,
      "Ġsnp": 7377,
      "anost": 7378,
      "Ġvystrie": 7379,
      "Ġodvodov": 7380,
      "Ġplatov": 7381,
      "Ġdoplnil": 7382,
      "Ġdiskri": 7383,
      "erven": 7384,
      "Ġzahynul": 7385,
      "Ġochorenia": 7386,
      "Ġhumanita": 7387,
      "Ġpozerat": 7388,
      "Ġhli": 7389,
      "Ġet": 7390,
      "erne": 7391,
      "alke": 7392,
      "Ġmedved": 7393,
      "hodli": 7394,
      "Ġnepris": 7395,
      "Ġnahradit": 7396,
      "Ġbohaty": 7397,
      "www": 7398,
      "Ġzajtra": 7399,
      "tena": 7400,
      "Ġpodvodni": 7401,
      "Ġlau": 7402,
      "Ġzvyc": 7403,
      "zident": 7404,
      "Ġeurofondov": 7405,
      "Ġvenezu": 7406,
      "fal": 7407,
      "peny": 7408,
      "Ġinova": 7409,
      "ness": 7410,
      "Ġpolicajt": 7411,
      "Ġpohybuje": 7412,
      "Ġobmedzenia": 7413,
      "Ġnomin": 7414,
      "Ġprirodzene": 7415,
      "Ġdokaz": 7416,
      "Ġslovami": 7417,
      "Ġobchody": 7418,
      "Ġchari": 7419,
      "Ġnikde": 7420,
      "Ġexperti": 7421,
      "alu": 7422,
      "dnou": 7423,
      "Ġute": 7424,
      "Ġpreferen": 7425,
      "Ġstrani": 7426,
      "Ġdielo": 7427,
      "canie": 7428,
      "tanie": 7429,
      "Ġnaja": 7430,
      "Ġkurio": 7431,
      "Ġdiskutuju": 7432,
      "Ġslabs": 7433,
      "Ġpracovi": 7434,
      "Ġhere": 7435,
      "fre": 7436,
      "Ġindia": 7437,
      "Ġmiss": 7438,
      "bule": 7439,
      "hodla": 7440,
      "dzala": 7441,
      "Ġpoliticku": 7442,
      "Ġmajstrovstiev": 7443,
      "Ġpouzi": 7444,
      "Ġhlasovat": 7445,
      "rokov": 7446,
      "Ġvydala": 7447,
      "Ġrac": 7448,
      "Ġjedlo": 7449,
      "Ġnapriklad": 7450,
      "Ġochrane": 7451,
      "Ġzraneni": 7452,
      "Ġprovi": 7453,
      "Ġzato": 7454,
      "Ġpodani": 7455,
      "buch": 7456,
      "iansky": 7457,
      "Ġtretinu": 7458,
      "Ġsevere": 7459,
      "dany": 7460,
      "rke": 7461,
      "zany": 7462,
      "Ġspred": 7463,
      "Ġker": 7464,
      "rodu": 7465,
      "Ġdone": 7466,
      "Ġtalen": 7467,
      "Ġbezdom": 7468,
      "Ġverzia": 7469,
      "Ġdemokracie": 7470,
      "Ġburza": 7471,
      "tosti": 7472,
      "Ġmiro": 7473,
      "Ġbezpro": 7474,
      "Ġviedni": 7475,
      "Ġzdravi": 7476,
      "Ġkrva": 7477,
      "Ġodborne": 7478,
      "Ġelektronicke": 7479,
      "Ġzjednodus": 7480,
      "psku": 7481,
      "Ġopu": 7482,
      "Ġdojem": 7483,
      "Ġves": 7484,
      "Ġbudes": 7485,
      "Ġkus": 7486,
      "Ġminulost": 7487,
      "Ġchodia": 7488,
      "kladaju": 7489,
      "Ġokna": 7490,
      "Ġteroristicky": 7491,
      "Ġdrese": 7492,
      "gar": 7493,
      "tska": 7494,
      "Ġkvi": 7495,
      "bere": 7496,
      "Ġpriebez": 7497,
      "Ġcentime": 7498,
      "Ġreforma": 7499,
      "Ġrobotni": 7500,
      "Ġpride": 7501,
      "Ġnajbo": 7502,
      "Ġdobrej": 7503,
      "Ġporovnania": 7504,
      "Ġpneumati": 7505,
      "Ġkrc": 7506,
      "nymi": 7507,
      "Ġprednost": 7508,
      "sobok": 7509,
      "Ġspravi": 7510,
      "Ġjednotka": 7511,
      "Ġanto": 7512,
      "vrhom": 7513,
      "Ġtvrdo": 7514,
      "Ġnajmens": 7515,
      "ervene": 7516,
      "Ġkabinet": 7517,
      "rnom": 7518,
      "vaci": 7519,
      "Ġoblie": 7520,
      "chodny": 7521,
      "Ġstretne": 7522,
      "Ġtrina": 7523,
      "Ġmatky": 7524,
      "Ġriadi": 7525,
      "Ġpovrch": 7526,
      "Ġposkytovat": 7527,
      "Ġreakcia": 7528,
      "Ġsektore": 7529,
      "pho": 7530,
      "vn": 7531,
      "now": 7532,
      "Ġidio": 7533,
      "Ġdiskutovat": 7534,
      "Ġkomisa": 7535,
      "Ġstanici": 7536,
      "Ġpapierov": 7537,
      "Ġwashingto": 7538,
      "dovala": 7539,
      "Ġmrez": 7540,
      "Ġble": 7541,
      "Ġodmietli": 7542,
      "Ġnarodil": 7543,
      "Ġreprezentant": 7544,
      "valej": 7545,
      "Ġjasny": 7546,
      "Ġjazd": 7547,
      "Ġvenuje": 7548,
      "Ġafgani": 7549,
      "Ġdokumenta": 7550,
      "Ġzmier": 7551,
      "Ġvsetkych": 7552,
      "Ġakciovy": 7553,
      "pskom": 7554,
      "enty": 7555,
      "nam": 7556,
      "mejs": 7557,
      "Ġbor": 7558,
      "Ġmur": 7559,
      "Ġfilo": 7560,
      "stavit": 7561,
      "Ġkvalitny": 7562,
      "Ġzostal": 7563,
      "Ġvyhrala": 7564,
      "Ġtvrdy": 7565,
      "Ġatlan": 7566,
      "Ġpodozrenie": 7567,
      "Ġkles": 7568,
      "rokovy": 7569,
      "Ġeuroposla": 7570,
      "Ġhodnoti": 7571,
      "Ġmiestne": 7572,
      "Ġteroristi": 7573,
      "Ġpap": 7574,
      "Ġnezvy": 7575,
      "Ġchore": 7576,
      "Ġprijatie": 7577,
      "Ġodboru": 7578,
      "Ġkonflikt": 7579,
      "Ġmlieka": 7580,
      "Ġpalube": 7581,
      "Ġpasaz": 7582,
      "jan": 7583,
      "Ġkilo": 7584,
      "nat": 7585,
      "behy": 7586,
      "Ġvez": 7587,
      "Ġnosi": 7588,
      "Ġprezidentovi": 7589,
      "Ġpodnikanie": 7590,
      "Ġkritizuje": 7591,
      "Ġafganistane": 7592,
      "aza": 7593,
      "ikom": 7594,
      "lmi": 7595,
      "Ġvul": 7596,
      "Ġdla": 7597,
      "Ġputina": 7598,
      "Ġoper": 7599,
      "Ġprevie": 7600,
      "Ġtrestu": 7601,
      "Ġnetradic": 7602,
      "siel": 7603,
      "Ġotoc": 7604,
      "Ġneci": 7605,
      "Ġepi": 7606,
      "pekula": 7607,
      "skumu": 7608,
      "Ġzob": 7609,
      "sial": 7610,
      "tier": 7611,
      "Ġangaz": 7612,
      "Ġspravodajstvo": 7613,
      "Ġdaniela": 7614,
      "Ġdosa": 7615,
      "Ġvzbu": 7616,
      "entoval": 7617,
      "gue": 7618,
      "Ġnaplno": 7619,
      "Ġnerozumie": 7620,
      "prom": 7621,
      "inka": 7622,
      "Ġvero": 7623,
      "zorom": 7624,
      "Ġparadox": 7625,
      "Ġdefin": 7626,
      "Ġzameria": 7627,
      "reli": 7628,
      "Ġziskom": 7629,
      "sport": 7630,
      "Ġverejnopra": 7631,
      "ahovat": 7632,
      "Ġdosial": 7633,
      "Ġletecky": 7634,
      "Ġpozemku": 7635,
      "aty": 7636,
      "iva": 7637,
      "Ġvloz": 7638,
      "Ġare": 7639,
      "ierov": 7640,
      "Ġobslu": 7641,
      "Ġstrede": 7642,
      "Ġkim": 7643,
      "Ġvstupu": 7644,
      "Ġmotiva": 7645,
      "Ġstromc": 7646,
      "Ġhomosexua": 7647,
      "kvali": 7648,
      "anca": 7649,
      "Ġzakladatel": 7650,
      "Ġkouc": 7651,
      "itn": 7652,
      "Ġtrate": 7653,
      "Ġdvojica": 7654,
      "tandardne": 7655,
      "avo": 7656,
      "dva": 7657,
      "eka": 7658,
      "Ġpsi": 7659,
      "Ġude": 7660,
      "tovo": 7661,
      "jil": 7662,
      "Ġsklo": 7663,
      "etrovania": 7664,
      "Ġjazdy": 7665,
      "ujmu": 7666,
      "Ġsilnejs": 7667,
      "Ġzbavit": 7668,
      "bet": 7669,
      "ked": 7670,
      "edna": 7671,
      "Ġboe": 7672,
      "Ġlom": 7673,
      "Ġrozsahu": 7674,
      "dzka": 7675,
      "Ġzamestnancom": 7676,
      "Ġobjavil": 7677,
      "Ġjazyku": 7678,
      "sma": 7679,
      "tkami": 7680,
      "Ġukry": 7681,
      "Ġronal": 7682,
      "Ġevan": 7683,
      "Ġfol": 7684,
      "Ġluka": 7685,
      "trukciu": 7686,
      "Ġpodmienkou": 7687,
      "Ġpracoval": 7688,
      "prednost": 7689,
      "Ġmodelu": 7690,
      "Ġvojenskej": 7691,
      "Ġzahynuli": 7692,
      "Ġhudby": 7693,
      "Ġpoklesu": 7694,
      "Ġmajstra": 7695,
      "Ġmercedes": 7696,
      "Ġdoposial": 7697,
      "enskej": 7698,
      "Ġvidia": 7699,
      "Ġverejnom": 7700,
      "Ġkontrolou": 7701,
      "Ġekonomike": 7702,
      "Ġneveri": 7703,
      "aduju": 7704,
      "zing": 7705,
      "stvy": 7706,
      "Ġmraz": 7707,
      "Ġvyjedna": 7708,
      "Ġmimov": 7709,
      "pisuje": 7710,
      "Ġcyklo": 7711,
      "Ġpostre": 7712,
      "Ġuznes": 7713,
      "Ġpresny": 7714,
      "Ġhlasovani": 7715,
      "Ġhnutie": 7716,
      "Ġpercento": 7717,
      "Ġkalkulac": 7718,
      "Ġzlac": 7719,
      "Ġpohre": 7720,
      "Ġponecha": 7721,
      "Ġono": 7722,
      "Ġneko": 7723,
      "mec": 7724,
      "bori": 7725,
      "Ġbox": 7726,
      "Ġham": 7727,
      "Ġkoncernu": 7728,
      "vnostne": 7729,
      "Ġtretina": 7730,
      "Ġpercentua": 7731,
      "Ġmimovla": 7732,
      "ovcov": 7733,
      "Ġzrka": 7734,
      "Ġdpa": 7735,
      "Ġzoo": 7736,
      "Ġzimny": 7737,
      "fajc": 7738,
      "Ġotvoren": 7739,
      "Ġpriestorov": 7740,
      "Ġreagovat": 7741,
      "Ġpozemkov": 7742,
      "avi": 7743,
      "Ġuprednost": 7744,
      "Ġprebe": 7745,
      "Ġletny": 7746,
      "Ġjak": 7747,
      "Ġamerike": 7748,
      "Ġkontrola": 7749,
      "Ġnezod": 7750,
      "Ġomnoho": 7751,
      "ÌĬ": 7752,
      "iak": 7753,
      "hoto": 7754,
      "Ġkop": 7755,
      "Ġzostav": 7756,
      "Ġnoz": 7757,
      "Ġsvetovom": 7758,
      "Ġverdi": 7759,
      "Ġdospely": 7760,
      "Ġservi": 7761,
      "Ġkrym": 7762,
      "Ġrozdiely": 7763,
      "Ġrozpore": 7764,
      "reb": 7765,
      "Ġmodli": 7766,
      "Ġinom": 7767,
      "Ġzosnu": 7768,
      "tomny": 7769,
      "Ġpripravena": 7770,
      "Ġspolupracovat": 7771,
      "Ġburze": 7772,
      "Ġibm": 7773,
      "av": 7774,
      "Ġsvi": 7775,
      "Ġneskor": 7776,
      "post": 7777,
      "Ġtrvalo": 7778,
      "Ġhrad": 7779,
      "Ġspoluhra": 7780,
      "Ġobchode": 7781,
      "Ġkapacity": 7782,
      "Ġspust": 7783,
      "Ġkliz": 7784,
      "livy": 7785,
      "Ġrob": 7786,
      "Ġger": 7787,
      "Ġbanku": 7788,
      "Ġfaj": 7789,
      "Ġministerstve": 7790,
      "Ġnevyjad": 7791,
      "Ġpracovnej": 7792,
      "Ġhovorili": 7793,
      "Ġotvorit": 7794,
      "bank": 7795,
      "Ġhospita": 7796,
      "Ġosobitne": 7797,
      "Ġkavia": 7798,
      "Ġmex": 7799,
      "Ġmenu": 7800,
      "Ġlux": 7801,
      "dnute": 7802,
      "Ġsmrtel": 7803,
      "Ġimigran": 7804,
      "dard": 7805,
      "Ġotvoril": 7806,
      "ring": 7807,
      "Ġgigan": 7808,
      "wi": 7809,
      "Ġai": 7810,
      "ram": 7811,
      "Ġoplati": 7812,
      "rium": 7813,
      "kopy": 7814,
      "niciach": 7815,
      "Ġodberatel": 7816,
      "vist": 7817,
      "bore": 7818,
      "nostnej": 7819,
      "sea": 7820,
      "Ġpomohli": 7821,
      "Ġoptima": 7822,
      "Ġkoncern": 7823,
      "Ġpripravuju": 7824,
      "Ġhraniciach": 7825,
      "Ġnepotrebuje": 7826,
      "Ġvelitel": 7827,
      "Ġmlc": 7828,
      "Ġing": 7829,
      "Ġprijali": 7830,
      "Ġizbovy": 7831,
      "Ġguverne": 7832,
      "Ġbudovu": 7833,
      "Ġbeblavy": 7834,
      "dan": 7835,
      "dova": 7836,
      "zeni": 7837,
      "skanie": 7838,
      "Ġnekom": 7839,
      "loh": 7840,
      "Ġplay": 7841,
      "Ġtretia": 7842,
      "Ġhlavnou": 7843,
      "Ġhodnoteni": 7844,
      "azil": 7845,
      "Ġmoderne": 7846,
      "Ġinvestora": 7847,
      "Ġparame": 7848,
      "ligar": 7849,
      "ftu": 7850,
      "hly": 7851,
      "jak": 7852,
      "tiny": 7853,
      "Ġdodat": 7854,
      "vodnej": 7855,
      "Ġmamic": 7856,
      "vedom": 7857,
      "Ġsteel": 7858,
      "Ġdesiatok": 7859,
      "Ġterc": 7860,
      "Ġdopytu": 7861,
      "Ġfilozo": 7862,
      "Ġnai": 7863,
      "ligen": 7864,
      "Ġdalej": 7865,
      "Ġexplo": 7866,
      "Ġviedol": 7867,
      "Ġschval": 7868,
      "Ġkolega": 7869,
      "Ġtaliansko": 7870,
      "Ġreklamy": 7871,
      "Ġhudobny": 7872,
      "Ġodohral": 7873,
      "Ġrenau": 7874,
      "Ġkatastrofa": 7875,
      "Ġnavza": 7876,
      "nta": 7877,
      "loka": 7878,
      "Ġstatu": 7879,
      "Ġpotr": 7880,
      "Ġkrokom": 7881,
      "Ġsmutne": 7882,
      "dda": 7883,
      "nani": 7884,
      "tovali": 7885,
      "tiu": 7886,
      "Ġmajo": 7887,
      "Ġjaro": 7888,
      "Ġpis": 7889,
      "borny": 7890,
      "Ġdemokracia": 7891,
      "Ġservis": 7892,
      "Ġolympijske": 7893,
      "dalo": 7894,
      "Ġgri": 7895,
      "Ġlet": 7896,
      "Ġsvedkov": 7897,
      "Ġpozri": 7898,
      "Ġbankro": 7899,
      "Ġtribu": 7900,
      "Ġzdravotna": 7901,
      "Ġmiestnosti": 7902,
      "Ġmaloob": 7903,
      "Ġtitulu": 7904,
      "Ġfarby": 7905,
      "Ġvybudovat": 7906,
      "Ġsviatok": 7907,
      "Ġzdolali": 7908,
      "Ġhttp": 7909,
      "fle": 7910,
      "kl": 7911,
      "tnosti": 7912,
      "lami": 7913,
      "Ġokres": 7914,
      "Ġkoruny": 7915,
      "Ġdruhov": 7916,
      "Ġuvedeny": 7917,
      "Ġobvinil": 7918,
      "Ġporaden": 7919,
      "Ġnejakej": 7920,
      "way": 7921,
      "Ġmerkelovej": 7922,
      "Ġnera": 7923,
      "Ġjest": 7924,
      "Ġefekt": 7925,
      "Ġpuk": 7926,
      "Ġkrem": 7927,
      "Ġodhaduje": 7928,
      "Ġschopni": 7929,
      "Ġtolko": 7930,
      "Ġnenecha": 7931,
      "snejs": 7932,
      "ubuje": 7933,
      "Ġcsa": 7934,
      "Ġnehra": 7935,
      "Ġvyhnu": 7936,
      "Ġprispe": 7937,
      "padom": 7938,
      "Ġinz": 7939,
      "Ġmikro": 7940,
      "Ġwo": 7941,
      "Ġpise": 7942,
      "vaniu": 7943,
      "Ġnestalo": 7944,
      "Ġukrajinske": 7945,
      "Ġtwit": 7946,
      "Ġoligar": 7947,
      "Ġneries": 7948,
      "Ġvsz": 7949,
      "Ġmeteoro": 7950,
      "dzalo": 7951,
      "akali": 7952,
      "Ġovplyvni": 7953,
      "Ġmiestami": 7954,
      "Ġreferenda": 7955,
      "Ġato": 7956,
      "Ġout": 7957,
      "sade": 7958,
      "Ġdruhou": 7959,
      "Ġfrank": 7960,
      "Ġjaponsky": 7961,
      "Ġprebieha": 7962,
      "datel": 7963,
      "skup": 7964,
      "Ġlas": 7965,
      "Ġperspekti": 7966,
      "Ġrealizovat": 7967,
      "Ġnutne": 7968,
      "Ġgraf": 7969,
      "Ġjadrovy": 7970,
      "Ġnafty": 7971,
      "hr": 7972,
      "Ġzvr": 7973,
      "redi": 7974,
      "Ġverit": 7975,
      "Ġpodporovat": 7976,
      "Ġvojak": 7977,
      "Ġkisku": 7978,
      "Ġstrategicky": 7979,
      "Ġnepatri": 7980,
      "Ġchlapci": 7981,
      "Ġnajbohats": 7982,
      "Ġredu": 7983,
      "Ġtatry": 7984,
      "Ġjuni": 7985,
      "Ġchces": 7986,
      "Ġmesiaci": 7987,
      "Ġmiestnej": 7988,
      "Ġstarosti": 7989,
      "Ġodborny": 7990,
      "Ġterorizmu": 7991,
      "Ġprudko": 7992,
      "druh": 7993,
      "Ġsfe": 7994,
      "Ġvonku": 7995,
      "Ġvidie": 7996,
      "Ġbala": 7997,
      "Ġstavebni": 7998,
      "Ġpriestoroch": 7999,
      "Ġuzavrel": 8000,
      "ray": 8001,
      "encom": 8002,
      "teba": 8003,
      "naj": 8004,
      "mono": 8005,
      "Ġhlavnu": 8006,
      "Ġnepres": 8007,
      "Ġplatby": 8008,
      "Ġbruta": 8009,
      "Ġkonfliktu": 8010,
      "ile": 8011,
      "zar": 8012,
      "lnemu": 8013,
      "Ġnemoze": 8014,
      "Ġtelekom": 8015,
      "Ġgorila": 8016,
      "Ġvzdelanie": 8017,
      "smich": 8018,
      "Ġistan": 8019,
      "Ġpiliera": 8020,
      "coch": 8021,
      "Ġtl": 8022,
      "malo": 8023,
      "Ġsume": 8024,
      "Ġchel": 8025,
      "etruje": 8026,
      "Ġhodnotenie": 8027,
      "Ġslaby": 8028,
      "Ġofenzi": 8029,
      "Ġprotesty": 8030,
      "Ġleteckej": 8031,
      "Ġautobusu": 8032,
      "tske": 8033,
      "zkej": 8034,
      "ticku": 8035,
      "mol": 8036,
      "Ġraj": 8037,
      "Ġvir": 8038,
      "Ġkupuju": 8039,
      "Ġzis": 8040,
      "dzkovatel": 8041,
      "astia": 8042,
      "Ġmanchest": 8043,
      "Ġenergiu": 8044,
      "Ġenergeticky": 8045,
      "Ġsviatky": 8046,
      "nca": 8047,
      "pania": 8048,
      "rala": 8049,
      "Ġkg": 8050,
      "Ġprihra": 8051,
      "Ġkul": 8052,
      "ktory": 8053,
      "Ġww": 8054,
      "lenmi": 8055,
      "kolstvo": 8056,
      "Ġpevne": 8057,
      "stras": 8058,
      "Ġbratislavska": 8059,
      "Ġpriemyselny": 8060,
      "Ġgazprom": 8061,
      "Ġznamenat": 8062,
      "Ġdoba": 8063,
      "movany": 8064,
      "Ġhlasovania": 8065,
      "Ġbieleho": 8066,
      "chlosti": 8067,
      "Ġbana": 8068,
      "Ġfl": 8069,
      "miu": 8070,
      "Ġvybrany": 8071,
      "Ġpublika": 8072,
      "Ġnar": 8073,
      "Ġpomer": 8074,
      "tefa": 8075,
      "Ġprehodno": 8076,
      "Ġwar": 8077,
      "tartuje": 8078,
      "Ġdopravnej": 8079,
      "Ġanglicky": 8080,
      "dzit": 8081,
      "Ġplnej": 8082,
      "Ġzha": 8083,
      "Ġmalej": 8084,
      "lies": 8085,
      "Ġorienta": 8086,
      "tvorcovy": 8087,
      "Ġdokumenty": 8088,
      "dania": 8089,
      "Ġnaho": 8090,
      "Ġprevra": 8091,
      "Ġvode": 8092,
      "Ġred": 8093,
      "Ġexpan": 8094,
      "gon": 8095,
      "Ġdosiahne": 8096,
      "Ġodmietla": 8097,
      "Ġankety": 8098,
      "rokove": 8099,
      "vajte": 8100,
      "Ġpredchod": 8101,
      "Ġmysliet": 8102,
      "Ġcintori": 8103,
      "Ġnevs": 8104,
      "cali": 8105,
      "Ġvars": 8106,
      "trna": 8107,
      "Ġobjavila": 8108,
      "Ġpetro": 8109,
      "Ġknihu": 8110,
      "Ġabsolven": 8111,
      "Ġpostihnuty": 8112,
      "Ġstredoeuro": 8113,
      "medz": 8114,
      "Ġpochopit": 8115,
      "Ġasisten": 8116,
      "Ġmaterskej": 8117,
      "Ġcelosve": 8118,
      "Ġbasketba": 8119,
      "jmom": 8120,
      "Ġadam": 8121,
      "Ġvis": 8122,
      "Ġlitrov": 8123,
      "Ġhodnotenia": 8124,
      "Ġpravdi": 8125,
      "Ġvytvoril": 8126,
      "nania": 8127,
      "chou": 8128,
      "Ġnazor": 8129,
      "Ġpripoji": 8130,
      "Ġroger": 8131,
      "Ġodtial": 8132,
      "Ġakosi": 8133,
      "zea": 8134,
      "Ġspoluz": 8135,
      "pku": 8136,
      "Ġobu": 8137,
      "dobe": 8138,
      "stupcov": 8139,
      "Ġcelkova": 8140,
      "Ġprojekte": 8141,
      "peciali": 8142,
      "Ġzvolili": 8143,
      "Ġreferende": 8144,
      "Ġtenistka": 8145,
      "Ġkara": 8146,
      "Ġstrelil": 8147,
      "Ġkazde": 8148,
      "Ġlucia": 8149,
      "robcu": 8150,
      "Ġnevidel": 8151,
      "Ġturnaja": 8152,
      "Ġzelenina": 8153,
      "alovany": 8154,
      "cove": 8155,
      "elia": 8156,
      "chove": 8157,
      "Ġbak": 8158,
      "jala": 8159,
      "Ġpasi": 8160,
      "Ġkompromi": 8161,
      "Ġvyzdvi": 8162,
      "Ġopatrenie": 8163,
      "Ġrozumie": 8164,
      "yoff": 8165,
      "Ġkyjev": 8166,
      "zda": 8167,
      "Ġsha": 8168,
      "Ġkani": 8169,
      "sis": 8170,
      "tyrmi": 8171,
      "jazd": 8172,
      "Ġzasiahla": 8173,
      "Ġmicrosoft": 8174,
      "ate": 8175,
      "sany": 8176,
      "hodu": 8177,
      "anovi": 8178,
      "tatu": 8179,
      "Ġradov": 8180,
      "Ġticho": 8181,
      "Ġplayoff": 8182,
      "Ġriadia": 8183,
      "Ġponuke": 8184,
      "Ġrovnakom": 8185,
      "Ġspotreby": 8186,
      "minister": 8187,
      "Ġpodpredsedu": 8188,
      "Ġerdo": 8189,
      "atel": 8190,
      "fie": 8191,
      "Ġpretrva": 8192,
      "kovania": 8193,
      "Ġstva": 8194,
      "robcovia": 8195,
      "Ġotvori": 8196,
      "Ġpohode": 8197,
      "Ġnavrhol": 8198,
      "Ġklesaju": 8199,
      "uge": 8200,
      "vnene": 8201,
      "Ġskom": 8202,
      "Ġprechod": 8203,
      "doslav": 8204,
      "bral": 8205,
      "Ġpocti": 8206,
      "Ġpovedane": 8207,
      "Ġprodukti": 8208,
      "ianskeho": 8209,
      "Ġdetro": 8210,
      "Ġkvoli": 8211,
      "Ġchuda": 8212,
      "Ġples": 8213,
      "Ġnevo": 8214,
      "Ġhzds": 8215,
      "Ġep": 8216,
      "Ġzeleny": 8217,
      "Ġaliancie": 8218,
      "cz": 8219,
      "ktov": 8220,
      "Ġmemo": 8221,
      "Ġvzdal": 8222,
      "Ġhamil": 8223,
      "Ġriadenia": 8224,
      "lizovane": 8225,
      "Ġover": 8226,
      "Ġdoprave": 8227,
      "Ġenergii": 8228,
      "Ġvybral": 8229,
      "dkami": 8230,
      "Ġada": 8231,
      "Ġhlina": 8232,
      "asnu": 8233,
      "Ġdeuts": 8234,
      "Ġvlasti": 8235,
      "Ġpriemysle": 8236,
      "Ġhrac": 8237,
      "Ġstarostu": 8238,
      "Ġminimum": 8239,
      "Ġhovorcu": 8240,
      "gas": 8241,
      "rich": 8242,
      "rica": 8243,
      "Ġvykon": 8244,
      "Ġjubi": 8245,
      "sovu": 8246,
      "Ġnico": 8247,
      "Ġemisie": 8248,
      "Ġzivot": 8249,
      "Ġtempo": 8250,
      "Ġgruzi": 8251,
      "Ġzakaz": 8252,
      "vanej": 8253,
      "Ġvychutna": 8254,
      "Ġnajpre": 8255,
      "Ġviedli": 8256,
      "Ġreprezentac": 8257,
      "Ġloptu": 8258,
      "Ġladislav": 8259,
      "kanie": 8260,
      "Ġnahla": 8261,
      "Ġpouc": 8262,
      "lien": 8263,
      "vach": 8264,
      "Ġvyvinu": 8265,
      "Ġslovenskou": 8266,
      "cast": 8267,
      "Ġnadva": 8268,
      "Ġrozhodlo": 8269,
      "Ġinternetove": 8270,
      "Ġhygi": 8271,
      "Ġstanicu": 8272,
      "Ġzamestnanec": 8273,
      "Ġokolity": 8274,
      "Ġteore": 8275,
      "Ġsmartfo": 8276,
      "Ġzvierata": 8277,
      "Ġnba": 8278,
      "Ġzaned": 8279,
      "cet": 8280,
      "Ġstrele": 8281,
      "Ġaktivita": 8282,
      "Ġvidno": 8283,
      "Ġhlasovanie": 8284,
      "Ġtlaku": 8285,
      "Ġzachran": 8286,
      "Ġdovolenky": 8287,
      "Ġzdolal": 8288,
      "Ġpridanej": 8289,
      "Ġmetropole": 8290,
      "levan": 8291,
      "Ġcou": 8292,
      "Ġsame": 8293,
      "Ġnekon": 8294,
      "Ġvyleps": 8295,
      "Ġpridal": 8296,
      "Ġforin": 8297,
      "Ġpolie": 8298,
      "Ġodhadov": 8299,
      "Ġgyurc": 8300,
      "Ġpercentne": 8301,
      "Ġsubjektov": 8302,
      "Ġodvetvi": 8303,
      "Ġmulti": 8304,
      "mla": 8305,
      "Ġpoly": 8306,
      "teho": 8307,
      "kodi": 8308,
      "Ġpreci": 8309,
      "Ġvymysle": 8310,
      "dnym": 8311,
      "Ġbab": 8312,
      "Ġtrhov": 8313,
      "Ġoslavy": 8314,
      "stroje": 8315,
      "Ġtrojroc": 8316,
      "Ġsekundy": 8317,
      "Ġistotu": 8318,
      "Ġdokonale": 8319,
      "itoc": 8320,
      "Ġnaraz": 8321,
      "teve": 8322,
      "Ġbrata": 8323,
      "tomnost": 8324,
      "terna": 8325,
      "Ġpredali": 8326,
      "Ġsloboda": 8327,
      "panielska": 8328,
      "Ġobjemu": 8329,
      "Ġclanok": 8330,
      "Ġbombar": 8331,
      "ll": 8332,
      "Ġpripu": 8333,
      "Ġfle": 8334,
      "Ġinfo": 8335,
      "Ġexperi": 8336,
      "Ġprven": 8337,
      "niach": 8338,
      "Ġproducen": 8339,
      "Ġnitry": 8340,
      "Ġjaponsku": 8341,
      "Ġhotela": 8342,
      "Ġdominika": 8343,
      "Ġmedvede": 8344,
      "Ġpova": 8345,
      "peku": 8346,
      "Ġpredraz": 8347,
      "stoch": 8348,
      "Ġkompen": 8349,
      "Ġzranenie": 8350,
      "Ġodporuc": 8351,
      "aplovic": 8352,
      "Ġgyurcsa": 8353,
      "Ġnata": 8354,
      "Ġpredi": 8355,
      "Ġprepad": 8356,
      "Ġmilov": 8357,
      "Ġdaj": 8358,
      "Ġzima": 8359,
      "dzu": 8360,
      "Ġfare": 8361,
      "enejs": 8362,
      "Ġkomory": 8363,
      "Ġporovnaniaslovensko": 8364,
      "wn": 8365,
      "Ġprofil": 8366,
      "Ġsmeruju": 8367,
      "Ġruke": 8368,
      "Ġcim": 8369,
      "Ġpezin": 8370,
      "Ġzvyknu": 8371,
      "lande": 8372,
      "Ġnevieme": 8373,
      "fy": 8374,
      "mova": 8375,
      "Ġnaciona": 8376,
      "lebo": 8377,
      "Ġstranou": 8378,
      "Ġjt": 8379,
      "Ġprisl": 8380,
      "iadatel": 8381,
      "Ġzamestnanosti": 8382,
      "Ġfungovali": 8383,
      "Ġkotlebu": 8384,
      "Ġextrali": 8385,
      "Ġcudzincov": 8386,
      "Ġluxem": 8387,
      "Ġnemi": 8388,
      "tici": 8389,
      "Ġsport": 8390,
      "hodna": 8391,
      "mestia": 8392,
      "Ġpolno": 8393,
      "Ġpodporili": 8394,
      "Ġskola": 8395,
      "Ġprezidentske": 8396,
      "Ġletecke": 8397,
      "Ġpriniesla": 8398,
      "Ġtajny": 8399,
      "Ġrekordne": 8400,
      "Ġprevza": 8401,
      "Ġposlanecke": 8402,
      "Ġalexander": 8403,
      "tl": 8404,
      "bala": 8405,
      "Ġdemi": 8406,
      "sobenie": 8407,
      "Ġosobu": 8408,
      "Ġinteligen": 8409,
      "jomny": 8410,
      "Ġpokuta": 8411,
      "Ġstanica": 8412,
      "Ġosemfina": 8413,
      "Ġreklama": 8414,
      "Ġdlhodoby": 8415,
      "marke": 8416,
      "atia": 8417,
      "itok": 8418,
      "Ġpana": 8419,
      "Ġvyku": 8420,
      "Ġburz": 8421,
      "Ġrecep": 8422,
      "Ġzota": 8423,
      "Ġokolia": 8424,
      "Ġfutbale": 8425,
      "Ġplno": 8426,
      "Ġmichalov": 8427,
      "Ġjuraja": 8428,
      "Ġdividen": 8429,
      "Ġandreja": 8430,
      "Ġidentifi": 8431,
      "Ġdna": 8432,
      "Ġnobe": 8433,
      "vnymi": 8434,
      "Ġsleduje": 8435,
      "Ġdreva": 8436,
      "Ġjadrove": 8437,
      "Ġchiru": 8438,
      "dkom": 8439,
      "Ġpivo": 8440,
      "inovej": 8441,
      "Ġvodne": 8442,
      "Ġkrajinou": 8443,
      "Ġokresny": 8444,
      "Ġpoisteni": 8445,
      "Ġpodozrive": 8446,
      "Ġpapier": 8447,
      "lva": 8448,
      "vci": 8449,
      "Ġsvin": 8450,
      "cil": 8451,
      "Ġvarian": 8452,
      "Ġsvetla": 8453,
      "tyridsat": 8454,
      "Ġcentov": 8455,
      "nski": 8456,
      "Ġpresku": 8457,
      "Ġkome": 8458,
      "logickej": 8459,
      "hrozi": 8460,
      "dovane": 8461,
      "lsky": 8462,
      "Ġprezi": 8463,
      "Ġgro": 8464,
      "hradne": 8465,
      "lenstvo": 8466,
      "Ġpus": 8467,
      "Ġposlancom": 8468,
      "Ġprehovo": 8469,
      "Ġdetske": 8470,
      "Ġcame": 8471,
      "Ġzasiahol": 8472,
      "lno": 8473,
      "Ġolej": 8474,
      "Ġoprav": 8475,
      "liu": 8476,
      "Ġtony": 8477,
      "sita": 8478,
      "Ġarci": 8479,
      "Ġprekvapi": 8480,
      "istit": 8481,
      "Ġdrogy": 8482,
      "Ġodvetvia": 8483,
      "Ġken": 8484,
      "Ġnepove": 8485,
      "elkou": 8486,
      "zeum": 8487,
      "ktoch": 8488,
      "Ġbaze": 8489,
      "kladn": 8490,
      "Ġtromi": 8491,
      "Ġkoruna": 8492,
      "Ġpriamy": 8493,
      "Ġhanba": 8494,
      "Ġpotrebujeme": 8495,
      "Ġkozme": 8496,
      "Ġpreukaz": 8497,
      "ecd": 8498,
      "dina": 8499,
      "wan": 8500,
      "Ġsin": 8501,
      "silia": 8502,
      "Ġzos": 8503,
      "viedol": 8504,
      "stupcu": 8505,
      "Ġpeuge": 8506,
      "Ġsln": 8507,
      "Ġodpovede": 8508,
      "Ġturecky": 8509,
      "Ġazyl": 8510,
      "Ġchelsea": 8511,
      "bre": 8512,
      "rkou": 8513,
      "Ġoecd": 8514,
      "Ġcan": 8515,
      "Ġzaregist": 8516,
      "Ġprist": 8517,
      "baj": 8518,
      "denu": 8519,
      "menu": 8520,
      "Ġzostre": 8521,
      "Ġwest": 8522,
      "lizac": 8523,
      "Ġcitro": 8524,
      "Ġastro": 8525,
      "radom": 8526,
      "Ġdri": 8527,
      "platok": 8528,
      "Ġzemia": 8529,
      "Ġklienta": 8530,
      "Ġfilmove": 8531,
      "Ġpripomien": 8532,
      "redit": 8533,
      "iaru": 8534,
      "Ġfia": 8535,
      "Ġnajlep": 8536,
      "Ġzosku": 8537,
      "Ġbezplatne": 8538,
      "Ġlavic": 8539,
      "Ġzobraz": 8540,
      "ovic": 8541,
      "Ġmana": 8542,
      "Ġprevodov": 8543,
      "Ġzmenili": 8544,
      "Ġoslavuje": 8545,
      "Ġporovnanie": 8546,
      "Ġasistent": 8547,
      "Ġsagana": 8548,
      "Ġvhodny": 8549,
      "Ġzavola": 8550,
      "koji": 8551,
      "ovacej": 8552,
      "pora": 8553,
      "Ġodpadu": 8554,
      "pasoch": 8555,
      "kes": 8556,
      "viek": 8557,
      "rovnal": 8558,
      "Ġoceni": 8559,
      "Ġchoro": 8560,
      "Ġostane": 8561,
      "Ġhydro": 8562,
      "Ġneskoro": 8563,
      "Ġzranil": 8564,
      "que": 8565,
      "Ġkorupcie": 8566,
      "Ġokruhu": 8567,
      "lnejs": 8568,
      "Ġmenia": 8569,
      "Ġprivel": 8570,
      "Ġodn": 8571,
      "Ġtender": 8572,
      "Ġtrvaju": 8573,
      "Ġfara": 8574,
      "Ġstromy": 8575,
      "Ġochoreni": 8576,
      "Ġorange": 8577,
      "Ġviet": 8578,
      "Ġseke": 8579,
      "ivoty": 8580,
      "giou": 8581,
      "Ġobamu": 8582,
      "mann": 8583,
      "iarska": 8584,
      "rodnosti": 8585,
      "Ġpostavil": 8586,
      "Ġanalytik": 8587,
      "Ġzobrat": 8588,
      "Ġhossa": 8589,
      "Ġslovnaft": 8590,
      "Ġtalent": 8591,
      "zuju": 8592,
      "Ġneskutoc": 8593,
      "Ġmarc": 8594,
      "Ġdrahe": 8595,
      "Ġambu": 8596,
      "Ġpiesne": 8597,
      "Ġalo": 8598,
      "enca": 8599,
      "Ġuk": 8600,
      "Ġvysa": 8601,
      "Ġodvo": 8602,
      "pravo": 8603,
      "tovou": 8604,
      "Ġtaketo": 8605,
      "Ġbojov": 8606,
      "Ġjazdu": 8607,
      "sobilo": 8608,
      "Ġzverejnili": 8609,
      "Ġkomunikac": 8610,
      "Ġregulac": 8611,
      "Ġvzdus": 8612,
      "Ġzvedavy": 8613,
      "gene": 8614,
      "Ġnabu": 8615,
      "vaj": 8616,
      "kac": 8617,
      "loven": 8618,
      "bavy": 8619,
      "Ġkapely": 8620,
      "astn": 8621,
      "kladnu": 8622,
      "Ġtrikra": 8623,
      "dnuty": 8624,
      "Ġsprostred": 8625,
      "Ġgrandslamovy": 8626,
      "aci": 8627,
      "okola": 8628,
      "zovali": 8629,
      "Ġnagy": 8630,
      "Ġole": 8631,
      "Ġbiel": 8632,
      "Ġum": 8633,
      "meny": 8634,
      "Ġdesi": 8635,
      "Ġdubov": 8636,
      "Ġlukrati": 8637,
      "verpo": 8638,
      "Ġdlhopisy": 8639,
      "Ġposkytne": 8640,
      "Ġplatnost": 8641,
      "azili": 8642,
      "Ġspotreba": 8643,
      "Ġkonkurencia": 8644,
      "Ġmuselo": 8645,
      "Ġfutbalista": 8646,
      "Ġdetaily": 8647,
      "Ġzlikvi": 8648,
      "iavanie": 8649,
      "Ġzavi": 8650,
      "Ġroma": 8651,
      "Ġpodvod": 8652,
      "chodo": 8653,
      "Ġzohra": 8654,
      "Ġbeto": 8655,
      "Ġlinka": 8656,
      "Ġgori": 8657,
      "Ġneoc": 8658,
      "Ġnebudeme": 8659,
      "Ġaktivisti": 8660,
      "Ġtlakom": 8661,
      "Ġcharakte": 8662,
      "Ġhollywood": 8663,
      "ako": 8664,
      "sor": 8665,
      "Ġnaha": 8666,
      "pala": 8667,
      "Ġkapela": 8668,
      "Ġnajzna": 8669,
      "mens": 8670,
      "Ġtatier": 8671,
      "Ġletne": 8672,
      "Ġvelky": 8673,
      "Ġligu": 8674,
      "Ġzime": 8675,
      "stavil": 8676,
      "Ġzistil": 8677,
      "Ġplochy": 8678,
      "Ġkilomet": 8679,
      "Ġobchodovanie": 8680,
      "Ġsamsu": 8681,
      "Ġvulga": 8682,
      "Ġambulan": 8683,
      "inte": 8684,
      "vanejs": 8685,
      "Ġpravy": 8686,
      "Ġkaza": 8687,
      "sobenia": 8688,
      "mienky": 8689,
      "Ġunited": 8690,
      "Ġzelene": 8691,
      "ovci": 8692,
      "Ġdres": 8693,
      "Ġode": 8694,
      "Ġnepi": 8695,
      "Ġvyplat": 8696,
      "Ġmay": 8697,
      "ovec": 8698,
      "Ġdavi": 8699,
      "Ġliter": 8700,
      "atko": 8701,
      "Ġdielne": 8702,
      "Ġtakzvany": 8703,
      "Ġetapy": 8704,
      "Ġwei": 8705,
      "akujem": 8706,
      "Ġvydat": 8707,
      "met": 8708,
      "Ġchro": 8709,
      "denni": 8710,
      "reniu": 8711,
      "Ġtimes": 8712,
      "ahke": 8713,
      "Ġchodcov": 8714,
      "Ġvyrovnat": 8715,
      "movat": 8716,
      "rodov": 8717,
      "teli": 8718,
      "Ġpredos": 8719,
      "Ġizo": 8720,
      "Ġsoma": 8721,
      "Ġbayer": 8722,
      "Ġluc": 8723,
      "Ġpovr": 8724,
      "Ġenvi": 8725,
      "Ġdieta": 8726,
      "Ġvyjadreni": 8727,
      "Ġplatnosti": 8728,
      "Ġpovodn": 8729,
      "Ġmodely": 8730,
      "Ġlokalite": 8731,
      "Ġgolf": 8732,
      "ahol": 8733,
      "toval": 8734,
      "Ġschra": 8735,
      "Ġvyjde": 8736,
      "ings": 8737,
      "padnom": 8738,
      "Ġostrove": 8739,
      "Ġmetra": 8740,
      "Ġjadrovej": 8741,
      "trajku": 8742,
      "shzds": 8743,
      "Ġprebiehaju": 8744,
      "Ġhypoteka": 8745,
      "Ġcivilistov": 8746,
      "Ġbolest": 8747,
      "unda": 8748,
      "Ġkoni": 8749,
      "Ġcuk": 8750,
      "Ġcestnej": 8751,
      "Ġdych": 8752,
      "Ġrokovaniach": 8753,
      "Ġihned": 8754,
      "Ġflori": 8755,
      "Ġiveta": 8756,
      "Ġsf": 8757,
      "Ġset": 8758,
      "Ġvyhy": 8759,
      "Ġdokopy": 8760,
      "Ġliverpo": 8761,
      "Ġstopy": 8762,
      "portovanie": 8763,
      "Ġpolovic": 8764,
      "Ġmatemati": 8765,
      "Ġsledov": 8766,
      "alobu": 8767,
      "Ġsudcu": 8768,
      "Ġotcom": 8769,
      "Ġsplnit": 8770,
      "Ġzasiahlo": 8771,
      "Ġsrdca": 8772,
      "Ġarogan": 8773,
      "Ġwwwa": 8774,
      "aha": 8775,
      "Ġzakonc": 8776,
      "demo": 8777,
      "voch": 8778,
      "Ġtoyo": 8779,
      "Ġodz": 8780,
      "Ġbyte": 8781,
      "bach": 8782,
      "Ġveru": 8783,
      "Ġbrani": 8784,
      "Ġrokuje": 8785,
      "spor": 8786,
      "Ġkartu": 8787,
      "aloby": 8788,
      "Ġposilnenie": 8789,
      "Ġmichaela": 8790,
      "Ġferra": 8791,
      "Ġbarack": 8792,
      "Ġtehoten": 8793,
      "Ġliteratu": 8794,
      "Ġzapnuty": 8795,
      "Ġprejde": 8796,
      "Ġprepustili": 8797,
      "lovo": 8798,
      "deniu": 8799,
      "Ġviktor": 8800,
      "Ġzaplatia": 8801,
      "Ġnepovaz": 8802,
      "Ġprekvapeni": 8803,
      "Ġemisii": 8804,
      "Ġmobilne": 8805,
      "udovi": 8806,
      "raduju": 8807,
      "Ġbili": 8808,
      "Ġpredal": 8809,
      "mobi": 8810,
      "rieb": 8811,
      "Ġtus": 8812,
      "Ġjuhovy": 8813,
      "Ġparkovanie": 8814,
      "kladna": 8815,
      "Ġloz": 8816,
      "Ġprispiet": 8817,
      "Ġpripraveni": 8818,
      "Ġulica": 8819,
      "Ġkandidovat": 8820,
      "Ġdemokraticky": 8821,
      "mysliet": 8822,
      "Ġic": 8823,
      "Ġodstran": 8824,
      "Ġakoz": 8825,
      "Ġkonzor": 8826,
      "Ġvlasy": 8827,
      "Ġkral": 8828,
      "Ġdecemb": 8829,
      "Ġvyjadrenie": 8830,
      "Ġbulva": 8831,
      "Ġjuhoko": 8832,
      "tsku": 8833,
      "Ġvina": 8834,
      "Ġvlna": 8835,
      "Ġpochod": 8836,
      "ome": 8837,
      "Ġumenia": 8838,
      "Ġsuc": 8839,
      "elky": 8840,
      "Ġbate": 8841,
      "Ġdobro": 8842,
      "Ġstolic": 8843,
      "Ġpodporou": 8844,
      "Ġtext": 8845,
      "Ġvda": 8846,
      "ovskej": 8847,
      "Ġdrob": 8848,
      "Ġozaj": 8849,
      "iami": 8850,
      "Ġutie": 8851,
      "mad": 8852,
      "Ġnajdl": 8853,
      "Ġmiezd": 8854,
      "Ġviackra": 8855,
      "Ġpikan": 8856,
      "Ġhumo": 8857,
      "razilo": 8858,
      "Ġjazdi": 8859,
      "rnym": 8860,
      "tatisticky": 8861,
      "Ġihrisku": 8862,
      "Ġkilogra": 8863,
      "Ġfolklo": 8864,
      "Ġdeutsche": 8865,
      "Ġnieje": 8866,
      "Ġzohl": 8867,
      "hradni": 8868,
      "lenu": 8869,
      "Ġsvetlo": 8870,
      "vrate": 8871,
      "Ġinvestorom": 8872,
      "Ġposilnit": 8873,
      "Ġfestivale": 8874,
      "Ġpropaga": 8875,
      "ght": 8876,
      "kani": 8877,
      "Ġzareag": 8878,
      "Ġfla": 8879,
      "Ġproto": 8880,
      "rensky": 8881,
      "covani": 8882,
      "hlasit": 8883,
      "Ġstratili": 8884,
      "Ġsmeruje": 8885,
      "Ġviditel": 8886,
      "Ġzemne": 8887,
      "stupn": 8888,
      "Ġkritika": 8889,
      "Ġhudobne": 8890,
      "iernu": 8891,
      "Ġgab": 8892,
      "Ġpredstavili": 8893,
      "Ġpotvrdzuje": 8894,
      "cvi": 8895,
      "stin": 8896,
      "dera": 8897,
      "vity": 8898,
      "Ġhodine": 8899,
      "asia": 8900,
      "Ġgast": 8901,
      "Ġformy": 8902,
      "Ġkolegov": 8903,
      "Ġnedostane": 8904,
      "Ġmatej": 8905,
      "Ġklasicky": 8906,
      "Ġzomrelo": 8907,
      "Ġsestier": 8908,
      "Ġzablok": 8909,
      "Ġevanje": 8910,
      "Ġblok": 8911,
      "Ġnel": 8912,
      "poz": 8913,
      "rujem": 8914,
      "buchu": 8915,
      "Ġvlaku": 8916,
      "brali": 8917,
      "Ġlin": 8918,
      "Ġpodpori": 8919,
      "Ġinteg": 8920,
      "Ġkym": 8921,
      "Ġdunaja": 8922,
      "Ġrakety": 8923,
      "afri": 8924,
      "kroc": 8925,
      "Ġvkladov": 8926,
      "Ġkrv": 8927,
      "Ġdemokrati": 8928,
      "Ġoddelenie": 8929,
      "Ġkabine": 8930,
      "zkom": 8931,
      "zskeho": 8932,
      "Ġapa": 8933,
      "Ġnabi": 8934,
      "Ġumenie": 8935,
      "initel": 8936,
      "Ġnesie": 8937,
      "Ġdivo": 8938,
      "nicku": 8939,
      "Ġpovzbu": 8940,
      "Ġkano": 8941,
      "Ġrovnaku": 8942,
      "Ġzostalo": 8943,
      "Ġprenos": 8944,
      "Ġschopne": 8945,
      "kupne": 8946,
      "Ġmoderny": 8947,
      "Ġkomora": 8948,
      "Ġutrpel": 8949,
      "Ġakciove": 8950,
      "movej": 8951,
      "Ġzvra": 8952,
      "Ġdospe": 8953,
      "Ġmien": 8954,
      "Ġulicu": 8955,
      "Ġspokojni": 8956,
      "Ġnemcov": 8957,
      "pecif": 8958,
      "kovala": 8959,
      "Ġsnd": 8960,
      "Ġdraz": 8961,
      "livo": 8962,
      "Ġnestra": 8963,
      "media": 8964,
      "vizo": 8965,
      "Ġprospe": 8966,
      "Ġsedi": 8967,
      "Ġzamestnanca": 8968,
      "Ġhyunda": 8969,
      "Ġtakomto": 8970,
      "eskom": 8971,
      "anskej": 8972,
      "Ġprinu": 8973,
      "Ġebo": 8974,
      "Ġobjekt": 8975,
      "Ġdestina": 8976,
      "Ġskri": 8977,
      "iadalo": 8978,
      "ujemcovia": 8979,
      "Ġrezervy": 8980,
      "Ġzobral": 8981,
      "Ġnovinka": 8982,
      "Ġyoutu": 8983,
      "Ġkotlebovci": 8984,
      "pta": 8985,
      "vneny": 8986,
      "Ġpola": 8987,
      "livost": 8988,
      "Ġkauzu": 8989,
      "Ġzosu": 8990,
      "Ġvidea": 8991,
      "Ġinych": 8992,
      "Ġnedaju": 8993,
      "Ġkontrolovat": 8994,
      "Ġpotravin": 8995,
      "Ġcyklista": 8996,
      "Ġkapito": 8997,
      "Ġdeficitu": 8998,
      "Ġtj": 8999,
      "Ġdjo": 9000,
      "Ġviaz": 9001,
      "Ġbratislavu": 9002,
      "chodnom": 9003,
      "Ġklubov": 9004,
      "Ġodmietnu": 9005,
      "Ġprocese": 9006,
      "isa": 9007,
      "Ġprebera": 9008,
      "vnemu": 9009,
      "Ġberu": 9010,
      "Ġcenou": 9011,
      "Ġverzie": 9012,
      "Ġslobodne": 9013,
      "Ġmoskvy": 9014,
      "Ġvznikne": 9015,
      "Ġistej": 9016,
      "Ġsamostatny": 9017,
      "Ġnajdlhs": 9018,
      "rista": 9019,
      "Ġosvedc": 9020,
      "Ġhviezd": 9021,
      "Ġmoment": 9022,
      "aric": 9023,
      "Ġkurzu": 9024,
      "Ġchudobny": 9025,
      "wer": 9026,
      "Ġskali": 9027,
      "nerom": 9028,
      "lezi": 9029,
      "tike": 9030,
      "ziou": 9031,
      "Ġpredva": 9032,
      "skaju": 9033,
      "hodnu": 9034,
      "Ġautono": 9035,
      "Ġnehodu": 9036,
      "eleznej": 9037,
      "eleznice": 9038,
      "Ġmasak": 9039,
      "Ġetape": 9040,
      "Ġsubjekty": 9041,
      "podmienky": 9042,
      "Ġwilliams": 9043,
      "ovna": 9044,
      "Ġpop": 9045,
      "Ġuci": 9046,
      "inny": 9047,
      "nis": 9048,
      "Ġfal": 9049,
      "Ġsilna": 9050,
      "Ġnige": 9051,
      "Ġnovemb": 9052,
      "Ġjednotiek": 9053,
      "Ġtridsia": 9054,
      "ssr": 9055,
      "Ġsankcii": 9056,
      "Ġtretine": 9057,
      "Ġmarihu": 9058,
      "gej": 9059,
      "skvs": 9060,
      "Ġhek": 9061,
      "Ġjedinou": 9062,
      "Ġprievi": 9063,
      "Ġnemec": 9064,
      "Ġprijala": 9065,
      "jednorazove": 9066,
      "Ġwwwavizo": 9067,
      "hania": 9068,
      "veni": 9069,
      "zskej": 9070,
      "Ġsani": 9071,
      "omber": 9072,
      "sticka": 9073,
      "Ġnajs": 9074,
      "tovpodmienky": 9075,
      "vaniaim": 9076,
      "Ġelektrickej": 9077,
      "Ġsmsjednorazove": 9078,
      "Ġkoncentra": 9079,
      "Ġwwwavizoskvs": 9080,
      "vaniaimportovanie": 9081,
      "bn": 9082,
      "Ġzin": 9083,
      "Ġuna": 9084,
      "Ġprila": 9085,
      "Ġsus": 9086,
      "Ġboris": 9087,
      "Ġspolie": 9088,
      "Ġlodi": 9089,
      "Ġtragicky": 9090,
      "Ġdvor": 9091,
      "Ġzdravia": 9092,
      "Ġpira": 9093,
      "Ġpoznaju": 9094,
      "Ġodhad": 9095,
      "Ġodhalili": 9096,
      "Ġdizajne": 9097,
      "Ġnajnesko": 9098,
      "Ġdjokovic": 9099,
      "lik": 9100,
      "niou": 9101,
      "Ġobal": 9102,
      "nejsie": 9103,
      "Ġpavel": 9104,
      "Ġkamera": 9105,
      "Ġzotr": 9106,
      "Ġruski": 9107,
      "Ġriadit": 9108,
      "Ġtvoji": 9109,
      "panielsky": 9110,
      "Ġzarobit": 9111,
      "efa": 9112,
      "ieri": 9113,
      "Ġkc": 9114,
      "Ġulic": 9115,
      "Ġnedal": 9116,
      "Ġropa": 9117,
      "Ġbush": 9118,
      "Ġalep": 9119,
      "Ġplast": 9120,
      "Ġkuku": 9121,
      "astnili": 9122,
      "tocy": 9123,
      "Ġfakty": 9124,
      "Ġkompletne": 9125,
      "Ġspres": 9126,
      "tlo": 9127,
      "Ġvyber": 9128,
      "Ġmou": 9129,
      "Ġvozov": 9130,
      "bos": 9131,
      "Ġdajte": 9132,
      "Ġinvestov": 9133,
      "Ġkreati": 9134,
      "Ġznamenalo": 9135,
      "Ġzastavil": 9136,
      "Ġzavedeni": 9137,
      "Ġprekonal": 9138,
      "Ġhttps": 9139,
      "bove": 9140,
      "gor": 9141,
      "jny": 9142,
      "chovy": 9143,
      "Ġporos": 9144,
      "Ġbbc": 9145,
      "Ġusi": 9146,
      "Ġprebu": 9147,
      "Ġkore": 9148,
      "Ġkorc": 9149,
      "Ġgor": 9150,
      "Ġverejnu": 9151,
      "Ġpremier": 9152,
      "Ġtvorit": 9153,
      "Ġseptemb": 9154,
      "Ġpripravil": 9155,
      "Ġnapadol": 9156,
      "Ġreklamu": 9157,
      "Ġclanku": 9158,
      "Ġvdaka": 9159,
      "adn": 9160,
      "cania": 9161,
      "fka": 9162,
      "Ġdaniach": 9163,
      "Ġtato": 9164,
      "Ġspolocnosti": 9165,
      "Ġanna": 9166,
      "Ġnezmeni": 9167,
      "liec": 9168,
      "lizuje": 9169,
      "Ġzaplatil": 9170,
      "Ġuplynule": 9171,
      "Ġpesnic": 9172,
      "Ġocea": 9173,
      "Ġkmen": 9174,
      "lio": 9175,
      "tela": 9176,
      "Ġmotocy": 9177,
      "pektu": 9178,
      "Ġlisa": 9179,
      "Ġpeniaz": 9180,
      "Ġtvrdenia": 9181,
      "Ġspomali": 9182,
      "Ġautomobilovy": 9183,
      "Ġstrategicke": 9184,
      "Ġodpovedat": 9185,
      "vyslanec": 9186,
      "Ġaeroli": 9187,
      "blo": 9188,
      "kciou": 9189,
      "tana": 9190,
      "Ġziadne": 9191,
      "gura": 9192,
      "Ġvrah": 9193,
      "Ġchoroba": 9194,
      "Ġneviete": 9195,
      "Ġplnit": 9196,
      "Ġpacienti": 9197,
      "Ġdovolenka": 9198,
      "Ġodpovedal": 9199,
      "Ġuvedomit": 9200,
      "iacich": 9201,
      "Ġkonce": 9202,
      "Ġmozgu": 9203,
      "spevkov": 9204,
      "Ġposkytuju": 9205,
      "Ġstavbu": 9206,
      "Ġodmietaju": 9207,
      "Ġgul": 9208,
      "telov": 9209,
      "kolo": 9210,
      "tach": 9211,
      "Ġvystre": 9212,
      "Ġpridel": 9213,
      "Ġrezo": 9214,
      "Ġakom": 9215,
      "Ġpolitolo": 9216,
      "Ġoff": 9217,
      "Ġpacienta": 9218,
      "Ġvolebnej": 9219,
      "panielsku": 9220,
      "Ġnehovoria": 9221,
      "Ġclintonova": 9222,
      "Ġferrari": 9223,
      "Ġvyp": 9224,
      "Ġsice": 9225,
      "Ġrevi": 9226,
      "Ġserio": 9227,
      "Ġrudol": 9228,
      "Ġzimne": 9229,
      "hera": 9230,
      "Ġpredstavila": 9231,
      "Ġpostupu": 9232,
      "Ġtypicky": 9233,
      "Ġafganist": 9234,
      "Ġcentimetrov": 9235,
      "tvrdi": 9236,
      "Ġsor": 9237,
      "Ġzden": 9238,
      "Ġmnou": 9239,
      "Ġpoka": 9240,
      "Ġstran": 9241,
      "Ġpredbe": 9242,
      "Ġmenta": 9243,
      "Ġrisk": 9244,
      "funkc": 9245,
      "Ġukazuju": 9246,
      "Ġnarodeniny": 9247,
      "novali": 9248,
      "yor": 9249,
      "Ġsran": 9250,
      "Ġcia": 9251,
      "ovatelia": 9252,
      "Ġmona": 9253,
      "Ġnajza": 9254,
      "inami": 9255,
      "Ġktorych": 9256,
      "azov": 9257,
      "Ġameriky": 9258,
      "jemny": 9259,
      "Ġukradli": 9260,
      "Ġvznikli": 9261,
      "Ġlicencie": 9262,
      "iava": 9263,
      "iatek": 9264,
      "bujem": 9265,
[...]
